/*******************************************************************************
* Copyright (C) 2022 Microchip Technology Inc. and its subsidiaries.
*
* Subject to your compliance with these terms, you may use Microchip software
* and any derivatives exclusively with Microchip products. It is your
* responsibility to comply with third party license terms applicable to your
* use of third party software (including open source software) that may
* accompany Microchip software.
*
* THIS SOFTWARE IS SUPPLIED BY MICROCHIP "AS IS". NO WARRANTIES, WHETHER
* EXPRESS, IMPLIED OR STATUTORY, APPLY TO THIS SOFTWARE, INCLUDING ANY IMPLIED
* WARRANTIES OF NON-INFRINGEMENT, MERCHANTABILITY, AND FITNESS FOR A
* PARTICULAR PURPOSE.
*
* IN NO EVENT WILL MICROCHIP BE LIABLE FOR ANY INDIRECT, SPECIAL, PUNITIVE,
* INCIDENTAL OR CONSEQUENTIAL LOSS, DAMAGE, COST OR EXPENSE OF ANY KIND
* WHATSOEVER RELATED TO THE SOFTWARE, HOWEVER CAUSED, EVEN IF MICROCHIP HAS
* BEEN ADVISED OF THE POSSIBILITY OR THE DAMAGES ARE FORESEEABLE. TO THE
* FULLEST EXTENT ALLOWED BY LAW, MICROCHIP'S TOTAL LIABILITY ON ALL CLAIMS IN
* ANY WAY RELATED TO THIS SOFTWARE WILL NOT EXCEED THE AMOUNT OF FEES, IF ANY,
* THAT YOU HAVE PAID DIRECTLY TO MICROCHIP FOR THIS SOFTWARE.
*******************************************************************************/

#include "model.h"

// We need to keep the data array aligned on some architectures.
#ifdef __has_attribute
#define HAVE_ATTRIBUTE(x) __has_attribute(x)
#else
#define HAVE_ATTRIBUTE(x) 0
#endif
#if HAVE_ATTRIBUTE(aligned) || (defined(__GNUC__) && !defined(__clang__))
#define DATA_ALIGN_ATTRIBUTE __attribute__((aligned(4)))
#else
#define DATA_ALIGN_ATTRIBUTE
#endif



const unsigned char g_model[] DATA_ALIGN_ATTRIBUTE = {
    0x20, 0x00, 0x00, 0x00, 0x54, 0x46, 0x4c, 0x33, 0x00, 0x00, 0x00, 0x00, 0x14,
    0x00, 0x20, 0x00, 0x04, 0x00, 0x08, 0x00, 0x0c, 0x00, 0x10, 0x00, 0x14, 0x00,
    0x00, 0x00, 0x18, 0x00, 0x1c, 0x00, 0x14, 0x00, 0x00, 0x00, 0x03, 0x00, 0x00,
    0x00, 0x18, 0x00, 0x00, 0x00, 0x2c, 0x00, 0x00, 0x00, 0x54, 0x01, 0x00, 0x00,
    0x2c, 0x00, 0x00, 0x00, 0xfc, 0x00, 0x00, 0x00, 0x74, 0x00, 0x00, 0x00, 0x05,
    0x00, 0x00, 0x00, 0xc0, 0x07, 0x00, 0x00, 0xc0, 0x06, 0x00, 0x00, 0xc4, 0x03,
    0x00, 0x00, 0xec, 0x02, 0x00, 0x00, 0x20, 0x02, 0x00, 0x00, 0x01, 0x00, 0x00,
    0x00, 0x4c, 0x01, 0x00, 0x00, 0x13, 0x00, 0x00, 0x00, 0x30, 0x3a, 0x00, 0x00,
    0x2c, 0x3a, 0x00, 0x00, 0x14, 0x39, 0x00, 0x00, 0xf8, 0x33, 0x00, 0x00, 0xa0,
    0x31, 0x00, 0x00, 0x68, 0x28, 0x00, 0x00, 0x10, 0x27, 0x00, 0x00, 0x38, 0x1e,
    0x00, 0x00, 0x60, 0x1d, 0x00, 0x00, 0xe4, 0x08, 0x00, 0x00, 0x54, 0x08, 0x00,
    0x00, 0x04, 0x3a, 0x00, 0x00, 0x00, 0x3a, 0x00, 0x00, 0xfc, 0x39, 0x00, 0x00,
    0xf8, 0x39, 0x00, 0x00, 0xf4, 0x39, 0x00, 0x00, 0xf0, 0x39, 0x00, 0x00, 0xec,
    0x39, 0x00, 0x00, 0xbc, 0x00, 0x00, 0x00, 0x01, 0x00, 0x00, 0x00, 0x10, 0x00,
    0x00, 0x00, 0x00, 0x00, 0x0a, 0x00, 0x10, 0x00, 0x0c, 0x00, 0x08, 0x00, 0x04,
    0x00, 0x0a, 0x00, 0x00, 0x00, 0x0c, 0x00, 0x00, 0x00, 0x1c, 0x00, 0x00, 0x00,
    0x20, 0x00, 0x00, 0x00, 0x0f, 0x00, 0x00, 0x00, 0x73, 0x65, 0x72, 0x76, 0x69,
    0x6e, 0x67, 0x5f, 0x64, 0x65, 0x66, 0x61, 0x75, 0x6c, 0x74, 0x00, 0x01, 0x00,
    0x00, 0x00, 0x14, 0x00, 0x00, 0x00, 0x01, 0x00, 0x00, 0x00, 0x24, 0x00, 0x00,
    0x00, 0x08, 0x00, 0x0c, 0x00, 0x08, 0x00, 0x04, 0x00, 0x08, 0x00, 0x00, 0x00,
    0x10, 0x00, 0x00, 0x00, 0x04, 0x00, 0x00, 0x00, 0x07, 0x00, 0x00, 0x00, 0x73,
    0x6f, 0x66, 0x74, 0x6d, 0x61, 0x78, 0x00, 0x9e, 0xc7, 0xff, 0xff, 0x04, 0x00,
    0x00, 0x00, 0x0d, 0x00, 0x00, 0x00, 0x63, 0x6f, 0x6e, 0x76, 0x32, 0x64, 0x30,
    0x5f, 0x69, 0x6e, 0x70, 0x75, 0x74, 0x00, 0x00, 0x00, 0x01, 0x00, 0x00, 0x00,
    0x0c, 0x00, 0x00, 0x00, 0x08, 0x00, 0x0c, 0x00, 0x04, 0x00, 0x08, 0x00, 0x08,
    0x00, 0x00, 0x00, 0x08, 0x00, 0x00, 0x00, 0x12, 0x00, 0x00, 0x00, 0x13, 0x00,
    0x00, 0x00, 0x6d, 0x69, 0x6e, 0x5f, 0x72, 0x75, 0x6e, 0x74, 0x69, 0x6d, 0x65,
    0x5f, 0x76, 0x65, 0x72, 0x73, 0x69, 0x6f, 0x6e, 0x00, 0xee, 0xc7, 0xff, 0xff,
    0x04, 0x00, 0x00, 0x00, 0x10, 0x00, 0x00, 0x00, 0x31, 0x2e, 0x31, 0x34, 0x2e,
    0x30, 0x00, 0x00, 0x00, 0x00, 0x00, 0x00, 0x00, 0x00, 0x00, 0x00, 0x0f, 0x00,
    0x00, 0x00, 0x4d, 0x4c, 0x49, 0x52, 0x20, 0x43, 0x6f, 0x6e, 0x76, 0x65, 0x72,
    0x74, 0x65, 0x64, 0x2e, 0x00, 0x00, 0x00, 0x0e, 0x00, 0x18, 0x00, 0x04, 0x00,
    0x08, 0x00, 0x0c, 0x00, 0x10, 0x00, 0x14, 0x00, 0x0e, 0x00, 0x00, 0x00, 0x14,
    0x00, 0x00, 0x00, 0x58, 0x00, 0x00, 0x00, 0x5c, 0x00, 0x00, 0x00, 0x60, 0x00,
    0x00, 0x00, 0x7c, 0x00, 0x00, 0x00, 0x11, 0x00, 0x00, 0x00, 0x38, 0x38, 0x00,
    0x00, 0xdc, 0x37, 0x00, 0x00, 0xc8, 0x35, 0x00, 0x00, 0xd0, 0x30, 0x00, 0x00,
    0x18, 0x2f, 0x00, 0x00, 0x00, 0x26, 0x00, 0x00, 0xe8, 0x24, 0x00, 0x00, 0x30,
    0x1c, 0x00, 0x00, 0x94, 0x1b, 0x00, 0x00, 0x2c, 0x07, 0x00, 0x00, 0x28, 0x06,
    0x00, 0x00, 0x28, 0x05, 0x00, 0x00, 0xe8, 0x03, 0x00, 0x00, 0xdc, 0x02, 0x00,
    0x00, 0x24, 0x02, 0x00, 0x00, 0x4c, 0x01, 0x00, 0x00, 0x80, 0x00, 0x00, 0x00,
    0x01, 0x00, 0x00, 0x00, 0x00, 0x00, 0x00, 0x00, 0x01, 0x00, 0x00, 0x00, 0x10,
    0x00, 0x00, 0x00, 0x07, 0x00, 0x00, 0x00, 0x94, 0x05, 0x00, 0x00, 0x98, 0x04,
    0x00, 0x00, 0x7c, 0x03, 0x00, 0x00, 0x70, 0x02, 0x00, 0x00, 0xc0, 0x01, 0x00,
    0x00, 0xd8, 0x00, 0x00, 0x00, 0x10, 0x00, 0x00, 0x00, 0x04, 0x00, 0x00, 0x00,
    0x6d, 0x61, 0x69, 0x6e, 0x00, 0x00, 0x00, 0x00, 0x4a, 0xff, 0xff, 0xff, 0x00,
    0x00, 0x00, 0x09, 0x04, 0x00, 0x00, 0x00, 0x1c, 0x00, 0x00, 0x00, 0x10, 0x00,
    0x00, 0x00, 0x04, 0x00, 0x00, 0x00, 0xe2, 0xc8, 0xff, 0xff, 0x00, 0x00, 0x80,
    0x3f, 0x01, 0x00, 0x00, 0x00, 0x10, 0x00, 0x00, 0x00, 0x01, 0x00, 0x00, 0x00,
    0x0f, 0x00, 0x00, 0x00, 0x7c, 0xfa, 0xff, 0xff, 0x19, 0x00, 0x00, 0x00, 0x00,
    0x00, 0x00, 0x19, 0x02, 0x00, 0x00, 0x00, 0x9c, 0xc8, 0xff, 0xff, 0x00, 0x00,
    0x00, 0x09, 0x14, 0x00, 0x00, 0x00, 0x11, 0x00, 0x00, 0x00, 0x18, 0x00, 0x00,
    0x00, 0x40, 0x00, 0x00, 0x00, 0x30, 0x00, 0x00, 0x00, 0x02, 0x00, 0x00, 0x00,
    0x01, 0x00, 0x00, 0x00, 0x0a, 0x00, 0x00, 0x00, 0x19, 0x00, 0x00, 0x00, 0x53,
    0x74, 0x61, 0x74, 0x65, 0x66, 0x75, 0x6c, 0x50, 0x61, 0x72, 0x74, 0x69, 0x74,
    0x69, 0x6f, 0x6e, 0x65, 0x64, 0x43, 0x61, 0x6c, 0x6c, 0x3a, 0x30, 0x00, 0x00,
    0x00, 0x02, 0x00, 0x00, 0x00, 0xff, 0xff, 0xff, 0xff, 0x0a, 0x00, 0x00, 0x00,
    0x74, 0xc8, 0xff, 0xff, 0x08, 0x00, 0x00, 0x00, 0x0c, 0x00, 0x00, 0x00, 0x01,
    0x00, 0x00, 0x00, 0x00, 0x00, 0x80, 0x3b, 0x01, 0x00, 0x00, 0x00, 0x80, 0xff,
    0xff, 0xff, 0xff, 0xff, 0xff, 0xff, 0x00, 0x00, 0x0e, 0x00, 0x18, 0x00, 0x08,
    0x00, 0x0c, 0x00, 0x10, 0x00, 0x07, 0x00, 0x14, 0x00, 0x0e, 0x00, 0x00, 0x00,
    0x00, 0x00, 0x00, 0x08, 0x03, 0x00, 0x00, 0x00, 0x18, 0x00, 0x00, 0x00, 0x0c,
    0x00, 0x00, 0x00, 0x04, 0x00, 0x00, 0x00, 0x90, 0xc8, 0xff, 0xff, 0x01, 0x00,
    0x00, 0x00, 0x0f, 0x00, 0x00, 0x00, 0x03, 0x00, 0x00, 0x00, 0x0e, 0x00, 0x00,
    0x00, 0x08, 0x00, 0x00, 0x00, 0x09, 0x00, 0x00, 0x00, 0x44, 0xfb, 0xff, 0xff,
    0x09, 0x00, 0x00, 0x00, 0x00, 0x00, 0x00, 0x09, 0x04, 0x00, 0x00, 0x00, 0x64,
    0xc9, 0xff, 0xff, 0x00, 0x00, 0x00, 0x09, 0x14, 0x00, 0x00, 0x00, 0x10, 0x00,
    0x00, 0x00, 0x18, 0x00, 0x00, 0x00, 0x60, 0x00, 0x00, 0x00, 0x50, 0x00, 0x00,
    0x00, 0x02, 0x00, 0x00, 0x00, 0x01, 0x00, 0x00, 0x00, 0x0a, 0x00, 0x00, 0x00,
    0x3a, 0x00, 0x00, 0x00, 0x73, 0x65, 0x71, 0x75, 0x65, 0x6e, 0x74, 0x69, 0x61,
    0x6c, 0x5f, 0x39, 0x36, 0x2f, 0x73, 0x6f, 0x66, 0x74, 0x6d, 0x61, 0x78, 0x2f,
    0x4d, 0x61, 0x74, 0x4d, 0x75, 0x6c, 0x3b, 0x73, 0x65, 0x71, 0x75, 0x65, 0x6e,
    0x74, 0x69, 0x61, 0x6c, 0x5f, 0x39, 0x36, 0x2f, 0x73, 0x6f, 0x66, 0x74, 0x6d,
    0x61, 0x78, 0x2f, 0x42, 0x69, 0x61, 0x73, 0x41, 0x64, 0x64, 0x00, 0x00, 0x02,
    0x00, 0x00, 0x00, 0xff, 0xff, 0xff, 0xff, 0x0a, 0x00, 0x00, 0x00, 0x5c, 0xc9,
    0xff, 0xff, 0x08, 0x00, 0x00, 0x00, 0x0c, 0x00, 0x00, 0x00, 0x01, 0x00, 0x00,
    0x00, 0x8d, 0x35, 0x8c, 0x3e, 0x01, 0x00, 0x00, 0x00, 0x2d, 0x00, 0x00, 0x00,
    0x00, 0x00, 0x00, 0x00, 0x00, 0x00, 0x0a, 0x00, 0x10, 0x00, 0x04, 0x00, 0x08,
    0x00, 0x0c, 0x00, 0x0a, 0x00, 0x00, 0x00, 0x02, 0x00, 0x00, 0x00, 0x10, 0x00,
    0x00, 0x00, 0x04, 0x00, 0x00, 0x00, 0x01, 0x00, 0x00, 0x00, 0x0e, 0x00, 0x00,
    0x00, 0x02, 0x00, 0x00, 0x00, 0x0d, 0x00, 0x00, 0x00, 0x01, 0x00, 0x00, 0x00,
    0x18, 0xfc, 0xff, 0xff, 0x16, 0x00, 0x00, 0x00, 0x00, 0x00, 0x00, 0x16, 0x01,
    0x00, 0x00, 0x00, 0x38, 0xca, 0xff, 0xff, 0x00, 0x00, 0x00, 0x09, 0x14, 0x00,
    0x00, 0x00, 0x0f, 0x00, 0x00, 0x00, 0x18, 0x00, 0x00, 0x00, 0x44, 0x00, 0x00,
    0x00, 0x34, 0x00, 0x00, 0x00, 0x02, 0x00, 0x00, 0x00, 0x01, 0x00, 0x00, 0x00,
    0x00, 0x02, 0x00, 0x00, 0x1d, 0x00, 0x00, 0x00, 0x73, 0x65, 0x71, 0x75, 0x65,
    0x6e, 0x74, 0x69, 0x61, 0x6c, 0x5f, 0x39, 0x36, 0x2f, 0x66, 0x6c, 0x61, 0x74,
    0x74, 0x65, 0x6e, 0x2f, 0x52, 0x65, 0x73, 0x68, 0x61, 0x70, 0x65, 0x00, 0x00,
    0x00, 0x02, 0x00, 0x00, 0x00, 0xff, 0xff, 0xff, 0xff, 0x00, 0x02, 0x00, 0x00,
    0x14, 0xca, 0xff, 0xff, 0x08, 0x00, 0x00, 0x00, 0x0c, 0x00, 0x00, 0x00, 0x01,
    0x00, 0x00, 0x00, 0xd6, 0xbe, 0x41, 0x3d, 0x01, 0x00, 0x00, 0x00, 0x80, 0xff,
    0xff, 0xff, 0xff, 0xff, 0xff, 0xff, 0xf6, 0xfc, 0xff, 0xff, 0x00, 0x00, 0x00,
    0x01, 0x24, 0x00, 0x00, 0x00, 0x18, 0x00, 0x00, 0x00, 0x04, 0x00, 0x00, 0x00,
    0xe8, 0xfc, 0xff, 0xff, 0x01, 0x00, 0x00, 0x00, 0x01, 0x00, 0x00, 0x00, 0x00,
    0x00, 0x01, 0x01, 0x01, 0x00, 0x00, 0x00, 0x0d, 0x00, 0x00, 0x00, 0x03, 0x00,
    0x00, 0x00, 0x0c, 0x00, 0x00, 0x00, 0x06, 0x00, 0x00, 0x00, 0x07, 0x00, 0x00,
    0x00, 0xec, 0xca, 0xff, 0xff, 0x00, 0x00, 0x00, 0x09, 0x14, 0x00, 0x00, 0x00,
    0x0e, 0x00, 0x00, 0x00, 0x20, 0x00, 0x00, 0x00, 0x98, 0x00, 0x00, 0x00, 0x80,
    0x00, 0x00, 0x00, 0x04, 0x00, 0x00, 0x00, 0x01, 0x00, 0x00, 0x00, 0x08, 0x00,
    0x00, 0x00, 0x08, 0x00, 0x00, 0x00, 0x08, 0x00, 0x00, 0x00, 0x62, 0x00, 0x00,
    0x00, 0x73, 0x65, 0x71, 0x75, 0x65, 0x6e, 0x74, 0x69, 0x61, 0x6c, 0x5f, 0x39,
    0x36, 0x2f, 0x63, 0x6f, 0x6e, 0x76, 0x32, 0x64, 0x32, 0x2f, 0x52, 0x65, 0x6c,
    0x75, 0x3b, 0x73, 0x65, 0x71, 0x75, 0x65, 0x6e, 0x74, 0x69, 0x61, 0x6c, 0x5f,
    0x39, 0x36, 0x2f, 0x63, 0x6f, 0x6e, 0x76, 0x32, 0x64, 0x32, 0x2f, 0x42, 0x69,
    0x61, 0x73, 0x41, 0x64, 0x64, 0x3b, 0x73, 0x65, 0x71, 0x75, 0x65, 0x6e, 0x74,
    0x69, 0x61, 0x6c, 0x5f, 0x39, 0x36, 0x2f, 0x63, 0x6f, 0x6e, 0x76, 0x32, 0x64,
    0x32, 0x2f, 0x43, 0x6f, 0x6e, 0x76, 0x32, 0x44, 0x3b, 0x63, 0x6f, 0x6e, 0x76,
    0x32, 0x64, 0x32, 0x2f, 0x62, 0x69, 0x61, 0x73, 0x00, 0x00, 0x04, 0x00, 0x00,
    0x00, 0xff, 0xff, 0xff, 0xff, 0x08, 0x00, 0x00, 0x00, 0x08, 0x00, 0x00, 0x00,
    0x08, 0x00, 0x00, 0x00, 0x1c, 0xcb, 0xff, 0xff, 0x08, 0x00, 0x00, 0x00, 0x0c,
    0x00, 0x00, 0x00, 0x01, 0x00, 0x00, 0x00, 0xd6, 0xbe, 0x41, 0x3d, 0x01, 0x00,
    0x00, 0x00, 0x80, 0xff, 0xff, 0xff, 0xff, 0xff, 0xff, 0xff, 0xfe, 0xfd, 0xff,
    0xff, 0x00, 0x00, 0x00, 0x01, 0x24, 0x00, 0x00, 0x00, 0x18, 0x00, 0x00, 0x00,
    0x04, 0x00, 0x00, 0x00, 0xf0, 0xfd, 0xff, 0xff, 0x01, 0x00, 0x00, 0x00, 0x01,
    0x00, 0x00, 0x00, 0x00, 0x00, 0x01, 0x01, 0x01, 0x00, 0x00, 0x00, 0x0c, 0x00,
    0x00, 0x00, 0x03, 0x00, 0x00, 0x00, 0x0b, 0x00, 0x00, 0x00, 0x04, 0x00, 0x00,
    0x00, 0x05, 0x00, 0x00, 0x00, 0xf4, 0xcb, 0xff, 0xff, 0x00, 0x00, 0x00, 0x09,
    0x14, 0x00, 0x00, 0x00, 0x0d, 0x00, 0x00, 0x00, 0x20, 0x00, 0x00, 0x00, 0x98,
    0x00, 0x00, 0x00, 0x80, 0x00, 0x00, 0x00, 0x04, 0x00, 0x00, 0x00, 0x01, 0x00,
    0x00, 0x00, 0x0b, 0x00, 0x00, 0x00, 0x0b, 0x00, 0x00, 0x00, 0x10, 0x00, 0x00,
    0x00, 0x62, 0x00, 0x00, 0x00, 0x73, 0x65, 0x71, 0x75, 0x65, 0x6e, 0x74, 0x69,
    0x61, 0x6c, 0x5f, 0x39, 0x36, 0x2f, 0x63, 0x6f, 0x6e, 0x76, 0x32, 0x64, 0x31,
    0x2f, 0x52, 0x65, 0x6c, 0x75, 0x3b, 0x73, 0x65, 0x71, 0x75, 0x65, 0x6e, 0x74,
    0x69, 0x61, 0x6c, 0x5f, 0x39, 0x36, 0x2f, 0x63, 0x6f, 0x6e, 0x76, 0x32, 0x64,
    0x31, 0x2f, 0x42, 0x69, 0x61, 0x73, 0x41, 0x64, 0x64, 0x3b, 0x73, 0x65, 0x71,
    0x75, 0x65, 0x6e, 0x74, 0x69, 0x61, 0x6c, 0x5f, 0x39, 0x36, 0x2f, 0x63, 0x6f,
    0x6e, 0x76, 0x32, 0x64, 0x31, 0x2f, 0x43, 0x6f, 0x6e, 0x76, 0x32, 0x44, 0x3b,
    0x63, 0x6f, 0x6e, 0x76, 0x32, 0x64, 0x31, 0x2f, 0x62, 0x69, 0x61, 0x73, 0x00,
    0x00, 0x04, 0x00, 0x00, 0x00, 0xff, 0xff, 0xff, 0xff, 0x0b, 0x00, 0x00, 0x00,
    0x0b, 0x00, 0x00, 0x00, 0x10, 0x00, 0x00, 0x00, 0x24, 0xcc, 0xff, 0xff, 0x08,
    0x00, 0x00, 0x00, 0x0c, 0x00, 0x00, 0x00, 0x01, 0x00, 0x00, 0x00, 0x4e, 0x02,
    0xa3, 0x3c, 0x01, 0x00, 0x00, 0x00, 0x80, 0xff, 0xff, 0xff, 0xff, 0xff, 0xff,
    0xff, 0x00, 0x00, 0x0e, 0x00, 0x1a, 0x00, 0x08, 0x00, 0x0c, 0x00, 0x10, 0x00,
    0x07, 0x00, 0x14, 0x00, 0x0e, 0x00, 0x00, 0x00, 0x00, 0x00, 0x00, 0x05, 0x01,
    0x00, 0x00, 0x00, 0x3c, 0x00, 0x00, 0x00, 0x30, 0x00, 0x00, 0x00, 0x14, 0x00,
    0x00, 0x00, 0x00, 0x00, 0x0e, 0x00, 0x18, 0x00, 0x17, 0x00, 0x10, 0x00, 0x0c,
    0x00, 0x08, 0x00, 0x04, 0x00, 0x0e, 0x00, 0x00, 0x00, 0x02, 0x00, 0x00, 0x00,
    0x02, 0x00, 0x00, 0x00, 0x02, 0x00, 0x00, 0x00, 0x02, 0x00, 0x00, 0x00, 0x00,
    0x00, 0x00, 0x01, 0x01, 0x00, 0x00, 0x00, 0x0b, 0x00, 0x00, 0x00, 0x01, 0x00,
    0x00, 0x00, 0x0a, 0x00, 0x00, 0x00, 0x10, 0xff, 0xff, 0xff, 0x11, 0x00, 0x00,
    0x00, 0x00, 0x00, 0x00, 0x11, 0x02, 0x00, 0x00, 0x00, 0x30, 0xcd, 0xff, 0xff,
    0x00, 0x00, 0x00, 0x09, 0x14, 0x00, 0x00, 0x00, 0x0c, 0x00, 0x00, 0x00, 0x20,
    0x00, 0x00, 0x00, 0x54, 0x00, 0x00, 0x00, 0x3c, 0x00, 0x00, 0x00, 0x04, 0x00,
    0x00, 0x00, 0x01, 0x00, 0x00, 0x00, 0x0c, 0x00, 0x00, 0x00, 0x0c, 0x00, 0x00,
    0x00, 0x20, 0x00, 0x00, 0x00, 0x1d, 0x00, 0x00, 0x00, 0x73, 0x65, 0x71, 0x75,
    0x65, 0x6e, 0x74, 0x69, 0x61, 0x6c, 0x5f, 0x39, 0x36, 0x2f, 0x6d, 0x61, 0x78,
    0x70, 0x6f, 0x6f, 0x6c, 0x2f, 0x4d, 0x61, 0x78, 0x50, 0x6f, 0x6f, 0x6c, 0x00,
    0x00, 0x00, 0x04, 0x00, 0x00, 0x00, 0xff, 0xff, 0xff, 0xff, 0x0c, 0x00, 0x00,
    0x00, 0x0c, 0x00, 0x00, 0x00, 0x20, 0x00, 0x00, 0x00, 0x1c, 0xcd, 0xff, 0xff,
    0x08, 0x00, 0x00, 0x00, 0x0c, 0x00, 0x00, 0x00, 0x01, 0x00, 0x00, 0x00, 0xfa,
    0xb6, 0xec, 0x3b, 0x01, 0x00, 0x00, 0x00, 0x80, 0xff, 0xff, 0xff, 0xff, 0xff,
    0xff, 0xff, 0x00, 0x00, 0x0e, 0x00, 0x14, 0x00, 0x00, 0x00, 0x08, 0x00, 0x0c,
    0x00, 0x07, 0x00, 0x10, 0x00, 0x0e, 0x00, 0x00, 0x00, 0x00, 0x00, 0x00, 0x01,
    0x30, 0x00, 0x00, 0x00, 0x24, 0x00, 0x00, 0x00, 0x10, 0x00, 0x00, 0x00, 0x0c,
    0x00, 0x10, 0x00, 0x0e, 0x00, 0x04, 0x00, 0x08, 0x00, 0x0f, 0x00, 0x0c, 0x00,
    0x00, 0x00, 0x01, 0x00, 0x00, 0x00, 0x01, 0x00, 0x00, 0x00, 0x00, 0x00, 0x01,
    0x01, 0x01, 0x00, 0x00, 0x00, 0x0a, 0x00, 0x00, 0x00, 0x03, 0x00, 0x00, 0x00,
    0x00, 0x00, 0x00, 0x00, 0x02, 0x00, 0x00, 0x00, 0x03, 0x00, 0x00, 0x00, 0x0c,
    0x00, 0x10, 0x00, 0x0b, 0x00, 0x00, 0x00, 0x0c, 0x00, 0x04, 0x00, 0x0c, 0x00,
    0x00, 0x00, 0x03, 0x00, 0x00, 0x00, 0x00, 0x00, 0x00, 0x03, 0x03, 0x00, 0x00,
    0x00, 0x2c, 0xce, 0xff, 0xff, 0x00, 0x00, 0x00, 0x09, 0x14, 0x00, 0x00, 0x00,
    0x0b, 0x00, 0x00, 0x00, 0x20, 0x00, 0x00, 0x00, 0x98, 0x00, 0x00, 0x00, 0x80,
    0x00, 0x00, 0x00, 0x04, 0x00, 0x00, 0x00, 0x01, 0x00, 0x00, 0x00, 0x18, 0x00,
    0x00, 0x00, 0x18, 0x00, 0x00, 0x00, 0x20, 0x00, 0x00, 0x00, 0x62, 0x00, 0x00,
    0x00, 0x73, 0x65, 0x71, 0x75, 0x65, 0x6e, 0x74, 0x69, 0x61, 0x6c, 0x5f, 0x39,
    0x36, 0x2f, 0x63, 0x6f, 0x6e, 0x76, 0x32, 0x64, 0x30, 0x2f, 0x52, 0x65, 0x6c,
    0x75, 0x3b, 0x73, 0x65, 0x71, 0x75, 0x65, 0x6e, 0x74, 0x69, 0x61, 0x6c, 0x5f,
    0x39, 0x36, 0x2f, 0x63, 0x6f, 0x6e, 0x76, 0x32, 0x64, 0x30, 0x2f, 0x42, 0x69,
    0x61, 0x73, 0x41, 0x64, 0x64, 0x3b, 0x73, 0x65, 0x71, 0x75, 0x65, 0x6e, 0x74,
    0x69, 0x61, 0x6c, 0x5f, 0x39, 0x36, 0x2f, 0x63, 0x6f, 0x6e, 0x76, 0x32, 0x64,
    0x30, 0x2f, 0x43, 0x6f, 0x6e, 0x76, 0x32, 0x44, 0x3b, 0x63, 0x6f, 0x6e, 0x76,
    0x32, 0x64, 0x30, 0x2f, 0x62, 0x69, 0x61, 0x73, 0x00, 0x00, 0x04, 0x00, 0x00,
    0x00, 0xff, 0xff, 0xff, 0xff, 0x18, 0x00, 0x00, 0x00, 0x18, 0x00, 0x00, 0x00,
    0x20, 0x00, 0x00, 0x00, 0x5c, 0xce, 0xff, 0xff, 0x08, 0x00, 0x00, 0x00, 0x0c,
    0x00, 0x00, 0x00, 0x01, 0x00, 0x00, 0x00, 0xfa, 0xb6, 0xec, 0x3b, 0x01, 0x00,
    0x00, 0x00, 0x80, 0xff, 0xff, 0xff, 0xff, 0xff, 0xff, 0xff, 0x66, 0xcf, 0xff,
    0xff, 0x04, 0x00, 0x00, 0x00, 0x28, 0x00, 0x00, 0x00, 0xfd, 0xff, 0xff, 0xff,
    0xad, 0xff, 0xff, 0xff, 0x92, 0xff, 0xff, 0xff, 0x69, 0x00, 0x00, 0x00, 0xc1,
    0xff, 0xff, 0xff, 0xb6, 0xfe, 0xff, 0xff, 0x05, 0x00, 0x00, 0x00, 0x4a, 0x00,
    0x00, 0x00, 0x01, 0x01, 0x00, 0x00, 0x46, 0x00, 0x00, 0x00, 0x7e, 0xcf, 0xff,
    0xff, 0x00, 0x00, 0x00, 0x02, 0x10, 0x00, 0x00, 0x00, 0x0a, 0x00, 0x00, 0x00,
    0x10, 0x00, 0x00, 0x00, 0x20, 0x00, 0x00, 0x00, 0x01, 0x00, 0x00, 0x00, 0x0a,
    0x00, 0x00, 0x00, 0x0c, 0x00, 0x00, 0x00, 0x73, 0x6f, 0x66, 0x74, 0x6d, 0x61,
    0x78, 0x2f, 0x62, 0x69, 0x61, 0x73, 0x00, 0x00, 0x00, 0x00, 0xe4, 0xce, 0xff,
    0xff, 0x08, 0x00, 0x00, 0x00, 0x0c, 0x00, 0x00, 0x00, 0x01, 0x00, 0x00, 0x00,
    0xc0, 0xbc, 0x73, 0x39, 0x01, 0x00, 0x00, 0x00, 0x00, 0x00, 0x00, 0x00, 0x00,
    0x00, 0x00, 0x00, 0x00, 0x00, 0x00, 0x00, 0xf2, 0xcf, 0xff, 0xff, 0x04, 0x00,
    0x00, 0x00, 0x00, 0x14, 0x00, 0x00, 0xce, 0x01, 0x00, 0x0f, 0xf0, 0x05, 0xfa,
    0x06, 0xec, 0x14, 0x0d, 0x08, 0xe9, 0xf2, 0xf5, 0xec, 0xd6, 0x03, 0xe8, 0xed,
    0xf7, 0xfa, 0xec, 0xfe, 0xe9, 0xfb, 0x08, 0x0e, 0xfd, 0x0e, 0x06, 0xfb, 0x05,
    0xff, 0x09, 0xf2, 0x0a, 0xf6, 0x05, 0xf6, 0x02, 0xfa, 0x1f, 0x12, 0xf7, 0x06,
    0xf2, 0x16, 0x12, 0xea, 0x09, 0xf2, 0x0f, 0x14, 0x17, 0xfb, 0xf7, 0x11, 0x12,
    0x1f, 0x07, 0x26, 0x06, 0x14, 0xf5, 0x14, 0x0c, 0x09, 0xd8, 0x03, 0xe5, 0xf9,
    0xf7, 0xf7, 0x0c, 0x0e, 0xf8, 0x11, 0xfa, 0x0e, 0xe5, 0xfe, 0xf8, 0xea, 0xe7,
    0x06, 0xff, 0xf4, 0x0f, 0x10, 0x1a, 0xed, 0x00, 0xe9, 0x02, 0xd9, 0x15, 0xf8,
    0x13, 0x16, 0xfc, 0xf4, 0xee, 0xfe, 0x31, 0xeb, 0x0b, 0xff, 0x0d, 0xf3, 0xf3,
    0x12, 0x17, 0xd6, 0x06, 0x0e, 0x03, 0xe9, 0xe1, 0x15, 0xec, 0xe9, 0x0f, 0x1f,
    0xff, 0x0a, 0xf6, 0x02, 0xd4, 0x14, 0x0b, 0x03, 0x03, 0xf1, 0x01, 0x04, 0xdf,
    0x05, 0x08, 0x0d, 0xee, 0x00, 0x07, 0xf0, 0x10, 0xfa, 0xee, 0xfe, 0xf2, 0xdc,
    0xcf, 0xdd, 0xf7, 0xef, 0xe4, 0xf9, 0x09, 0xef, 0xc8, 0xee, 0xea, 0xea, 0xf2,
    0x07, 0xe9, 0xf0, 0x1d, 0xef, 0x0b, 0xdd, 0xea, 0x0f, 0x0c, 0xfe, 0x0d, 0xde,
    0x0c, 0xc4, 0xe3, 0x04, 0x00, 0xfd, 0x0e, 0xf0, 0xf3, 0xda, 0xfc, 0xfa, 0x0f,
    0x01, 0x00, 0xfb, 0xbe, 0x29, 0xfd, 0xf5, 0x0a, 0xed, 0xf8, 0x0e, 0xd9, 0xf7,
    0xee, 0x07, 0x04, 0x05, 0xfc, 0xfb, 0xf7, 0x08, 0xe8, 0x07, 0xf7, 0xe9, 0xd8,
    0xf3, 0x23, 0xed, 0xf0, 0x23, 0x06, 0xdf, 0xe5, 0xe6, 0x10, 0xf6, 0xff, 0x21,
    0xe3, 0xea, 0x00, 0xf4, 0x07, 0x0f, 0xed, 0xfb, 0x08, 0xf6, 0xfd, 0x04, 0x0e,
    0x10, 0xe3, 0xfd, 0xfb, 0x00, 0x1b, 0x13, 0xeb, 0x09, 0xde, 0xf7, 0x00, 0xd9,
    0x11, 0xf3, 0xca, 0x24, 0xe0, 0x0d, 0x0b, 0xf5, 0x06, 0xdc, 0xd8, 0xf7, 0xe1,
    0x12, 0xff, 0xeb, 0x0c, 0xf4, 0xf4, 0xff, 0xeb, 0x1e, 0x0e, 0x0c, 0xc3, 0xeb,
    0xee, 0xec, 0x1a, 0x10, 0x02, 0xf1, 0xd7, 0x13, 0x18, 0xed, 0xf8, 0xff, 0xfa,
    0x10, 0x0d, 0xf8, 0x10, 0x08, 0xe5, 0xff, 0x09, 0x0c, 0x06, 0xf2, 0xfe, 0x30,
    0xf0, 0xec, 0xf9, 0xdb, 0x2e, 0xef, 0xc8, 0x0a, 0xba, 0xe2, 0xe7, 0xd6, 0xf2,
    0xea, 0xaf, 0x02, 0xd5, 0x13, 0x1a, 0x06, 0x0a, 0x04, 0xce, 0xe9, 0xef, 0xf1,
    0x0f, 0x0d, 0x17, 0xfa, 0xed, 0xf1, 0xf5, 0x28, 0x1a, 0xfe, 0xd4, 0x1a, 0xd9,
    0xf4, 0x0b, 0x31, 0x13, 0x06, 0xce, 0x06, 0xf8, 0xf3, 0xfb, 0x0e, 0xf6, 0x02,
    0xea, 0xfd, 0xee, 0xfb, 0xf0, 0xda, 0x07, 0xf3, 0xf6, 0x11, 0xce, 0x18, 0x07,
    0xf7, 0xff, 0xd7, 0x03, 0xd9, 0xde, 0xee, 0xd7, 0xff, 0x06, 0xe5, 0xfd, 0xf9,
    0x0c, 0x1a, 0xe6, 0x0d, 0x08, 0xfb, 0xf8, 0x2e, 0xe5, 0x14, 0xd6, 0x0b, 0x10,
    0x0e, 0xff, 0x2b, 0xfd, 0xfa, 0xf8, 0x04, 0x04, 0x03, 0xc9, 0x30, 0x0f, 0xf6,
    0xf4, 0x1d, 0xf7, 0x13, 0xb2, 0x0f, 0x16, 0x18, 0x0c, 0xf0, 0x05, 0xf7, 0xcf,
    0x2b, 0xfb, 0x11, 0x0e, 0xe0, 0xfd, 0x06, 0xce, 0x0f, 0xf7, 0xf3, 0xe4, 0xe7,
    0xdd, 0xef, 0xe2, 0x1d, 0x03, 0x04, 0xde, 0xe3, 0xf4, 0xf3, 0xe3, 0x00, 0xff,
    0x01, 0xac, 0x05, 0x25, 0xef, 0xfc, 0xfe, 0xf2, 0xe8, 0xe6, 0x31, 0x02, 0x05,
    0x0b, 0x3b, 0x12, 0x06, 0xea, 0xf7, 0x0b, 0x18, 0xc6, 0x30, 0x13, 0x09, 0xec,
    0xc2, 0x20, 0x19, 0xa6, 0x1a, 0x15, 0x02, 0xef, 0xb8, 0x1d, 0x13, 0xc3, 0xf3,
    0x21, 0x15, 0xeb, 0xb2, 0xf1, 0xfc, 0xb5, 0xf3, 0x1d, 0x03, 0xf0, 0xee, 0x01,
    0x16, 0xd5, 0xed, 0x11, 0x05, 0x17, 0xe7, 0xf7, 0x02, 0xea, 0xe9, 0xf2, 0xe2,
    0xe4, 0xf1, 0x18, 0xfe, 0x1c, 0xf4, 0xe5, 0xd5, 0xed, 0xfc, 0x12, 0xeb, 0x19,
    0x18, 0x02, 0x14, 0xd7, 0xfa, 0x02, 0xee, 0x08, 0x04, 0xe8, 0x17, 0xfd, 0x04,
    0x08, 0xee, 0x1f, 0x0e, 0x00, 0x13, 0xf9, 0x0a, 0x19, 0xd7, 0x34, 0x0d, 0x25,
    0xf8, 0xf7, 0xfb, 0x18, 0xe3, 0x5a, 0xf1, 0x0d, 0x10, 0xfe, 0xf6, 0x03, 0xee,
    0x1c, 0x03, 0x1c, 0x02, 0xe3, 0xf2, 0x0b, 0xf0, 0x29, 0xf2, 0xe6, 0xf7, 0x10,
    0xf9, 0x0d, 0x11, 0xf9, 0xff, 0x05, 0xe8, 0x02, 0xe5, 0xf8, 0xfa, 0x03, 0x0e,
    0xf5, 0xfb, 0x08, 0xef, 0xe1, 0x0b, 0x1d, 0x0f, 0xf3, 0x0a, 0xf4, 0xf7, 0xf7,
    0x01, 0x22, 0x05, 0xe6, 0xfc, 0x03, 0xf8, 0xfa, 0xd4, 0x48, 0x03, 0x11, 0xfc,
    0x08, 0x01, 0x0f, 0xf1, 0x31, 0xf1, 0x16, 0x1f, 0x0a, 0xed, 0x17, 0x03, 0x18,
    0xfa, 0x09, 0x05, 0xf3, 0xef, 0xfb, 0xeb, 0x10, 0xec, 0x08, 0xf4, 0x05, 0x0f,
    0xf5, 0xfe, 0xfe, 0x15, 0xef, 0x07, 0xf5, 0x09, 0xf0, 0xee, 0xf6, 0x23, 0xe1,
    0x11, 0x0c, 0xee, 0xe0, 0x04, 0xf8, 0x05, 0xe1, 0x0f, 0xe3, 0x02, 0xdb, 0x01,
    0x1e, 0xf0, 0x0a, 0x0a, 0xdd, 0x1e, 0xee, 0xf3, 0x25, 0xf2, 0xd6, 0x08, 0x04,
    0x0b, 0xf6, 0xd5, 0x11, 0x10, 0xe3, 0x14, 0xfe, 0x00, 0x02, 0xef, 0x15, 0x1a,
    0xfa, 0x13, 0xf2, 0xee, 0xed, 0x00, 0x1c, 0xe5, 0xf5, 0xe6, 0xfe, 0x14, 0xeb,
    0x03, 0xf4, 0x0e, 0xee, 0xe0, 0xfc, 0x05, 0xf1, 0xed, 0x12, 0x18, 0x04, 0x06,
    0x13, 0xed, 0xb4, 0xdc, 0xfb, 0xdb, 0x19, 0xf0, 0xfd, 0x1c, 0xc2, 0xde, 0xf7,
    0xed, 0xfe, 0xfb, 0xb8, 0x1b, 0xf1, 0xba, 0xd4, 0xf1, 0xdb, 0xed, 0xf5, 0x1d,
    0xf9, 0xca, 0x04, 0x20, 0xf4, 0xde, 0x06, 0x09, 0x0d, 0xfe, 0x11, 0xfb, 0x08,
    0xef, 0xf3, 0xfb, 0x02, 0xf4, 0xf1, 0xe7, 0x02, 0xe0, 0xea, 0xce, 0x0d, 0x08,
    0xf8, 0xf6, 0x0c, 0xfb, 0xf3, 0xea, 0xf6, 0xf9, 0x0d, 0xec, 0xfb, 0x0f, 0x1d,
    0x10, 0xc9, 0x0c, 0x07, 0xce, 0x03, 0xf5, 0x06, 0xee, 0xdc, 0xe2, 0x00, 0xe1,
    0xeb, 0xeb, 0x09, 0x17, 0x04, 0xd4, 0xd8, 0xfa, 0xcc, 0xda, 0x14, 0x0e, 0x14,
    0xf2, 0xed, 0xf3, 0x08, 0x0a, 0x19, 0xfc, 0xec, 0x03, 0xf2, 0xef, 0x0c, 0xf1,
    0xfa, 0xf1, 0xf8, 0xf6, 0xff, 0x12, 0xfd, 0xe6, 0xfe, 0xfa, 0xf6, 0x1b, 0xf4,
    0xfa, 0x0a, 0xe8, 0x07, 0xfd, 0xe1, 0xf4, 0x07, 0x03, 0xfa, 0xfa, 0x1a, 0xfc,
    0xef, 0x0b, 0x07, 0xee, 0xed, 0x06, 0xe8, 0x07, 0xe8, 0xff, 0x00, 0x0f, 0xc3,
    0x08, 0x1e, 0x18, 0x02, 0xde, 0xed, 0x15, 0x1e, 0x0e, 0x29, 0x1f, 0x04, 0x10,
    0x04, 0x08, 0x05, 0x11, 0x04, 0x18, 0x0f, 0x1e, 0x33, 0x06, 0x08, 0xe9, 0xf6,
    0xf8, 0x00, 0x0f, 0xf4, 0x00, 0xd7, 0xf6, 0x0f, 0x13, 0xfb, 0x17, 0xf9, 0x15,
    0xce, 0x0b, 0xfb, 0x0f, 0xf0, 0x0c, 0x03, 0xe1, 0xef, 0xee, 0x08, 0x00, 0xf8,
    0x00, 0x2e, 0xfa, 0x0b, 0x0e, 0xf4, 0x05, 0x03, 0xf5, 0x01, 0x0d, 0x08, 0xf7,
    0x10, 0x01, 0xef, 0xff, 0xfa, 0x0a, 0x38, 0x0b, 0xf4, 0x11, 0x19, 0x11, 0x21,
    0xf2, 0x27, 0xea, 0xf4, 0x02, 0x04, 0x0d, 0x42, 0xfc, 0xf8, 0xf9, 0x07, 0x0f,
    0x05, 0x17, 0x14, 0x1a, 0xe9, 0x13, 0x26, 0xe9, 0xe3, 0xf2, 0x15, 0xe9, 0xed,
    0x04, 0x12, 0xe8, 0xde, 0xe6, 0x01, 0xed, 0x03, 0xee, 0x04, 0xf9, 0xe8, 0xfb,
    0x15, 0xe7, 0x1b, 0x0e, 0xee, 0xea, 0xfd, 0xf0, 0x26, 0xed, 0x1d, 0x0a, 0xd7,
    0xd1, 0x09, 0x0f, 0x41, 0x15, 0x1a, 0xe3, 0x00, 0xf4, 0xf7, 0x13, 0x29, 0xfd,
    0xea, 0xd5, 0x16, 0xe5, 0x10, 0x0b, 0x24, 0xf0, 0xfd, 0xcd, 0x0b, 0xfc, 0x03,
    0x01, 0xf5, 0xf3, 0x0a, 0xe4, 0x05, 0xda, 0xfa, 0xee, 0xfd, 0x16, 0x07, 0x00,
    0xf5, 0xe0, 0xed, 0x04, 0xf4, 0xff, 0x18, 0xfb, 0x1b, 0xfb, 0xd7, 0xdd, 0xdd,
    0x13, 0x0b, 0xe3, 0xf3, 0xf6, 0xf1, 0xf8, 0xf0, 0x10, 0xfa, 0xf1, 0xf3, 0xf2,
    0x08, 0xf5, 0xc7, 0xf4, 0xf6, 0xed, 0x07, 0x13, 0xfc, 0xf5, 0xd0, 0x12, 0x03,
    0xcc, 0x07, 0xfe, 0xf5, 0x11, 0x14, 0xf9, 0xf7, 0xc8, 0xf4, 0xf8, 0xfa, 0xef,
    0x2c, 0x05, 0x01, 0x15, 0x0e, 0xcb, 0xf3, 0x02, 0xf0, 0xe0, 0x0e, 0xfc, 0x22,
    0xc9, 0xff, 0x10, 0xf0, 0xef, 0x08, 0x12, 0x05, 0xf5, 0xec, 0x01, 0xf9, 0x13,
    0x14, 0x0a, 0x10, 0x13, 0x05, 0xf2, 0xee, 0x08, 0x02, 0xf8, 0xec, 0x12, 0x06,
    0xf9, 0xe7, 0xf8, 0xf4, 0xdc, 0xf6, 0xeb, 0x0b, 0xe9, 0xfa, 0x0d, 0xe7, 0xbf,
    0xed, 0xf5, 0x04, 0xda, 0xf4, 0x04, 0xe9, 0xb8, 0xfb, 0xf8, 0x0e, 0xf7, 0x12,
    0x1a, 0x0b, 0xe6, 0x00, 0xbd, 0x05, 0x04, 0xf4, 0x02, 0xfc, 0xfb, 0x27, 0xc0,
    0xe7, 0xf9, 0xf4, 0x0e, 0xf4, 0xf6, 0x0e, 0x16, 0xfc, 0xf5, 0xe5, 0x0f, 0x07,
    0xd4, 0x15, 0x32, 0x10, 0xf0, 0xf8, 0x29, 0xe3, 0xf4, 0xf6, 0x05, 0xe9, 0xfc,
    0xf6, 0x0e, 0x1e, 0xf4, 0x12, 0x20, 0xe3, 0xf8, 0x17, 0x15, 0x02, 0xf8, 0x07,
    0x25, 0x01, 0xc6, 0xe3, 0x05, 0xcf, 0xf3, 0xfc, 0xee, 0x1d, 0xe9, 0x08, 0x08,
    0x19, 0x0c, 0x18, 0xfb, 0x10, 0x01, 0xcc, 0xf6, 0x17, 0xff, 0x0b, 0xfc, 0x08,
    0x18, 0xe2, 0x00, 0xf4, 0x1d, 0x25, 0x07, 0x00, 0x0c, 0xed, 0xe5, 0xfa, 0x06,
    0x0d, 0x0e, 0xfd, 0x1d, 0xe9, 0xec, 0xec, 0x06, 0xef, 0xfa, 0x05, 0xfc, 0x0d,
    0x0d, 0xfe, 0x0e, 0x0c, 0x01, 0xed, 0x0d, 0x06, 0x1a, 0x0d, 0x11, 0xe5, 0x02,
    0x0f, 0xf0, 0x23, 0x02, 0xe8, 0x05, 0x0e, 0xed, 0xfe, 0x06, 0x1c, 0x19, 0xf0,
    0x0a, 0x0d, 0xdf, 0xec, 0x0f, 0xf4, 0x10, 0xf7, 0x20, 0x04, 0x03, 0xdd, 0x01,
    0xd5, 0xf0, 0x02, 0x06, 0xf2, 0x0e, 0xe5, 0x05, 0xd4, 0xdf, 0xbf, 0xfa, 0x01,
    0x0b, 0xea, 0xfb, 0xf3, 0xf1, 0xd5, 0x02, 0xf6, 0x16, 0x0d, 0x08, 0x08, 0xff,
    0x04, 0x00, 0xe4, 0xf2, 0xf1, 0xfd, 0x06, 0x09, 0x1c, 0x1b, 0x10, 0x09, 0xf0,
    0x12, 0x22, 0xf3, 0xff, 0x27, 0x1e, 0xe6, 0x0d, 0x02, 0x02, 0xfb, 0xcd, 0x1d,
    0x13, 0x08, 0xec, 0x18, 0x01, 0x00, 0xcf, 0x22, 0xf9, 0x17, 0xfb, 0x16, 0xfa,
    0xef, 0xe1, 0x1d, 0x15, 0x0c, 0xf0, 0xfa, 0xd6, 0xeb, 0xea, 0xf9, 0x12, 0x19,
    0xec, 0xdb, 0xf6, 0xde, 0xec, 0xf4, 0xee, 0x04, 0xf7, 0x02, 0x02, 0x11, 0xf7,
    0x05, 0xe8, 0xff, 0x19, 0x0d, 0xf7, 0xfa, 0x0f, 0x12, 0x1d, 0xf0, 0x0e, 0x02,
    0xcf, 0xee, 0x06, 0x31, 0x0c, 0xec, 0x01, 0x38, 0xfd, 0xfd, 0xce, 0x15, 0xee,
    0x01, 0xed, 0xe7, 0x22, 0xf9, 0xe1, 0x1b, 0xf5, 0xf4, 0x04, 0xee, 0x14, 0x09,
    0x0b, 0x2c, 0x17, 0xfc, 0x1f, 0x07, 0xfb, 0xe7, 0x1b, 0x1c, 0x1b, 0x00, 0xfe,
    0xf7, 0xf3, 0x00, 0x03, 0x16, 0x15, 0xf5, 0xf3, 0x06, 0xce, 0xf5, 0x0d, 0xfc,
    0x14, 0xde, 0x0b, 0x16, 0xc9, 0xe5, 0xfa, 0x1b, 0x09, 0xf9, 0x19, 0x06, 0xb5,
    0xff, 0x1a, 0x12, 0x24, 0xfa, 0x29, 0x0f, 0xcc, 0x2b, 0xeb, 0x07, 0xc0, 0xb9,
    0x0f, 0xe5, 0x0e, 0xcc, 0x03, 0x10, 0xdf, 0xc4, 0xf8, 0xf4, 0x03, 0x0d, 0x05,
    0x0a, 0x03, 0x05, 0x05, 0xfa, 0xfc, 0xed, 0x18, 0x36, 0x10, 0x08, 0xec, 0x08,
    0xd0, 0xff, 0x1f, 0x14, 0xf5, 0xc6, 0xfd, 0x17, 0xed, 0x07, 0x18, 0xf9, 0x2f,
    0xe8, 0x13, 0x15, 0xf1, 0xfe, 0x06, 0x10, 0x28, 0xfe, 0x1d, 0x1a, 0xc2, 0x18,
    0x0e, 0x18, 0x08, 0xe0, 0x21, 0x0a, 0xad, 0x1a, 0xfe, 0xeb, 0x1a, 0xbc, 0x01,
    0x22, 0xe2, 0xe1, 0x13, 0xef, 0x03, 0xdd, 0x11, 0x15, 0xe8, 0xeb, 0x2a, 0xf3,
    0x0f, 0xda, 0xff, 0x03, 0x02, 0xed, 0x21, 0xe3, 0x13, 0xfd, 0xfe, 0x02, 0xfc,
    0x0c, 0x0a, 0xe7, 0xed, 0x0a, 0x00, 0xf2, 0xe9, 0x12, 0xef, 0xfc, 0xfc, 0x1c,
    0xf7, 0xee, 0x18, 0x06, 0xfa, 0xec, 0x01, 0x04, 0xea, 0x07, 0x14, 0x0b, 0xea,
    0xe7, 0xfb, 0x22, 0xf9, 0xf9, 0x13, 0xff, 0x08, 0xf2, 0xea, 0x9e, 0xf0, 0xe2,
    0x07, 0xb6, 0x18, 0x02, 0x05, 0xd7, 0xeb, 0x08, 0xe6, 0xe1, 0xfb, 0xeb, 0xfd,
    0x07, 0xe8, 0xef, 0xe0, 0xc7, 0x08, 0xf2, 0x05, 0x0b, 0x04, 0xf0, 0xe2, 0xeb,
    0xf2, 0x0b, 0xf3, 0x08, 0x06, 0x11, 0xfa, 0xe2, 0xdc, 0xfe, 0xe6, 0xf9, 0x11,
    0xf8, 0x01, 0xf7, 0xd7, 0x08, 0xe5, 0x1a, 0x06, 0xeb, 0x1f, 0xf5, 0xde, 0xdc,
    0xde, 0x16, 0xf9, 0xe7, 0x07, 0x14, 0x03, 0xdb, 0x02, 0xe7, 0xef, 0x0b, 0xee,
    0xe8, 0xfc, 0xf5, 0x08, 0xe2, 0xd5, 0xfd, 0xe8, 0xec, 0xfa, 0x02, 0xff, 0xeb,
    0xe7, 0x12, 0xe9, 0x00, 0xf3, 0x0d, 0x07, 0xf6, 0xf6, 0xff, 0xfa, 0xf1, 0xf7,
    0x0c, 0xee, 0xee, 0x09, 0x1a, 0xe8, 0xe1, 0xda, 0x07, 0xfb, 0x05, 0xfb, 0x01,
    0xdf, 0xf7, 0x09, 0x1a, 0x11, 0xe5, 0xfd, 0x17, 0xf3, 0x07, 0xe8, 0x1b, 0xfb,
    0xfd, 0x05, 0xfc, 0xed, 0x0e, 0x0f, 0xdf, 0xfd, 0x09, 0xfb, 0xed, 0x03, 0xec,
    0x1d, 0xfc, 0x0a, 0xfb, 0xde, 0xfa, 0xfc, 0xfe, 0x1c, 0xfc, 0x1c, 0xe5, 0x03,
    0x26, 0x0c, 0xdb, 0x03, 0xf9, 0x0c, 0xd7, 0x05, 0xfb, 0xea, 0xdb, 0xf5, 0x05,
    0xfa, 0xe1, 0xfa, 0xfb, 0xcf, 0xde, 0xfe, 0x0e, 0xfb, 0x04, 0x13, 0x17, 0xb8,
    0xf9, 0xe2, 0xfd, 0x08, 0x07, 0xf2, 0x12, 0xc8, 0x0d, 0xe9, 0xfd, 0x21, 0x0f,
    0x01, 0x1b, 0xf1, 0x05, 0x17, 0xcc, 0x13, 0x2a, 0xed, 0x0e, 0x1f, 0x00, 0x2f,
    0xe3, 0x2b, 0x15, 0x00, 0xfb, 0x17, 0x0c, 0x14, 0xea, 0x05, 0xf8, 0x01, 0xee,
    0x0c, 0xf7, 0xf2, 0x04, 0x1b, 0xe8, 0xf2, 0x14, 0xf1, 0xe2, 0xfc, 0x22, 0x06,
    0xf2, 0x19, 0xfc, 0xc0, 0xd2, 0x05, 0x08, 0xfe, 0xef, 0xff, 0xfc, 0xde, 0x04,
    0xeb, 0xed, 0xe0, 0x1a, 0x05, 0x14, 0xe8, 0x0b, 0xe4, 0xe1, 0x1a, 0x15, 0xfe,
    0xf6, 0xfc, 0x17, 0x15, 0xd8, 0xfb, 0x1a, 0x19, 0x15, 0xe9, 0xfe, 0x08, 0xe5,
    0xfd, 0x08, 0x0f, 0x0f, 0x22, 0x21, 0xf4, 0xe2, 0xfa, 0xee, 0xfe, 0xf8, 0x1c,
    0xf9, 0xf4, 0xf7, 0x19, 0xe0, 0x1b, 0x18, 0xd7, 0xf0, 0xe6, 0xdc, 0xf4, 0xed,
    0x0d, 0x12, 0xdc, 0xe8, 0xe4, 0xcb, 0xe5, 0x0a, 0xfb, 0x1d, 0xe3, 0xf1, 0xf3,
    0xe3, 0xf1, 0xfe, 0xed, 0x01, 0x13, 0x1e, 0xf8, 0xe1, 0xff, 0x12, 0xf8, 0xf1,
    0x05, 0xf1, 0x2c, 0xf0, 0x07, 0x10, 0x00, 0x05, 0xf2, 0xf3, 0x13, 0x08, 0x0d,
    0xf9, 0x0d, 0xfa, 0xfc, 0x12, 0x1d, 0xf2, 0x07, 0x0e, 0x0b, 0x00, 0xfe, 0x06,
    0x03, 0x09, 0x04, 0x0e, 0x0f, 0xfa, 0xcc, 0xfe, 0x02, 0x01, 0xf8, 0x00, 0x06,
    0xf8, 0xce, 0xfc, 0x04, 0xfb, 0x0b, 0x05, 0xfb, 0x11, 0xfc, 0xf6, 0xd1, 0x17,
    0x11, 0x0c, 0x0f, 0xf4, 0x0d, 0xfa, 0xe0, 0xfb, 0x21, 0x00, 0x0c, 0xf0, 0x0b,
    0xe8, 0x10, 0xe9, 0x32, 0x09, 0x2c, 0x09, 0xd2, 0x48, 0xf3, 0xf5, 0x25, 0xfe,
    0x0e, 0x0b, 0xe5, 0x09, 0x0f, 0xfa, 0x2e, 0xff, 0x0e, 0x1b, 0xe8, 0x06, 0xe8,
    0xf9, 0x2b, 0xea, 0xec, 0x0e, 0xc6, 0xe1, 0xf1, 0xfa, 0xf9, 0x03, 0xfb, 0x06,
    0xd4, 0x03, 0xcc, 0x18, 0xf7, 0x23, 0xf7, 0xd7, 0xfc, 0xf6, 0xd3, 0x1f, 0xf8,
    0x06, 0xf6, 0xdf, 0xc7, 0x0b, 0x03, 0x1c, 0xef, 0x11, 0xf4, 0xdf, 0x01, 0x0c,
    0xd0, 0xdd, 0xe8, 0x0f, 0x11, 0xed, 0xf0, 0xfe, 0xd5, 0xcc, 0xea, 0x27, 0xf0,
    0xe0, 0x16, 0x21, 0xbd, 0xe8, 0xe4, 0x2d, 0x06, 0xda, 0x1a, 0x16, 0xb3, 0xf0,
    0xe5, 0x0f, 0xe1, 0xde, 0x19, 0x0f, 0xd5, 0x08, 0xe4, 0x0f, 0xdc, 0xcb, 0x06,
    0xf8, 0xed, 0xf9, 0x03, 0x02, 0xee, 0xdc, 0x0a, 0xfd, 0xec, 0x12, 0xe1, 0xea,
    0xe6, 0xe5, 0x1c, 0xe5, 0xff, 0x1f, 0xf8, 0xeb, 0xe3, 0xfa, 0xea, 0xfc, 0xb2,
    0xea, 0x0e, 0x02, 0xfe, 0x1b, 0xfb, 0x1b, 0x88, 0xf2, 0x18, 0x18, 0x19, 0x0b,
    0x0a, 0x1d, 0xe1, 0x03, 0xf3, 0xfb, 0x09, 0xf7, 0x07, 0x1e, 0xf2, 0xf6, 0xf1,
    0xf5, 0xff, 0x03, 0x08, 0x38, 0xf3, 0x01, 0xf5, 0x1b, 0xf8, 0x0c, 0xfc, 0x16,
    0xe0, 0x24, 0xef, 0x00, 0x07, 0xec, 0x26, 0xef, 0xd1, 0x28, 0xd1, 0xea, 0x1c,
    0xf3, 0x23, 0xe3, 0xf6, 0x0f, 0xf5, 0xd8, 0x05, 0x04, 0xe9, 0xf5, 0xfd, 0x1a,
    0x28, 0x15, 0x0d, 0x0f, 0x07, 0x25, 0xf3, 0x09, 0x18, 0x02, 0x16, 0xe6, 0xf5,
    0x13, 0x2a, 0x09, 0x0f, 0x00, 0x16, 0x03, 0xfd, 0x13, 0x0a, 0x03, 0x13, 0x09,
    0x05, 0xf1, 0xd7, 0x11, 0xfd, 0x1c, 0x02, 0x16, 0xe8, 0xf7, 0x0e, 0x0e, 0xe6,
    0x2c, 0x07, 0x10, 0x04, 0xff, 0xf5, 0x07, 0xed, 0x21, 0xec, 0xf8, 0x08, 0x01,
    0x02, 0x08, 0xeb, 0x1a, 0xed, 0x07, 0xfd, 0x19, 0xcb, 0x0d, 0x13, 0x10, 0xfa,
    0x04, 0x0e, 0x18, 0xfc, 0x0b, 0x0f, 0x0c, 0xeb, 0x24, 0xfd, 0xfa, 0x0b, 0xf7,
    0x0f, 0xfa, 0xec, 0xff, 0x07, 0xf9, 0xf4, 0x07, 0xed, 0xfd, 0xe9, 0x00, 0x0f,
    0x0d, 0xdd, 0xfe, 0xfc, 0xf1, 0x05, 0xfa, 0x05, 0xfa, 0xf0, 0xf6, 0xf1, 0x12,
    0x16, 0xfe, 0x04, 0xdd, 0x1f, 0x0f, 0xcd, 0x01, 0xea, 0x0f, 0x03, 0xf9, 0x0f,
    0x0c, 0xd7, 0xf7, 0xe0, 0xed, 0x12, 0x17, 0xd9, 0x11, 0x1e, 0x23, 0xd0, 0xee,
    0x06, 0x0a, 0xec, 0xf6, 0x0a, 0x12, 0xde, 0xff, 0x03, 0x18, 0xfe, 0xe7, 0x0e,
    0xfe, 0xdb, 0xe7, 0xfc, 0x1d, 0xec, 0x13, 0x2d, 0xf7, 0xe9, 0xf2, 0x0f, 0x04,
    0xfc, 0xff, 0x1a, 0xf4, 0x05, 0xf4, 0x10, 0x1d, 0x1e, 0x0e, 0xf7, 0xfc, 0x0a,
    0xe3, 0x00, 0xf6, 0x1c, 0x0d, 0xe3, 0x1a, 0xdb, 0x09, 0x00, 0xfa, 0x3e, 0x07,
    0x19, 0xf7, 0xe9, 0xfb, 0x0d, 0x10, 0xf9, 0x12, 0xfa, 0x00, 0xe5, 0xb6, 0xf5,
    0x09, 0xed, 0xf2, 0x09, 0x11, 0xd2, 0xd7, 0x01, 0x03, 0x14, 0x14, 0x0a, 0x0c,
    0xea, 0xd8, 0x0a, 0xf8, 0xf5, 0x21, 0x28, 0xf5, 0xdf, 0xc6, 0xf3, 0xf4, 0x10,
    0x0a, 0x10, 0x12, 0x12, 0xcc, 0xe7, 0xf9, 0x00, 0x12, 0xe0, 0x1b, 0x1e, 0xd0,
    0x1a, 0x05, 0x30, 0x01, 0xff, 0x0b, 0xf5, 0xf5, 0x17, 0x0f, 0x13, 0xe1, 0x04,
    0xf9, 0xc1, 0xf0, 0x0a, 0x12, 0xfa, 0xf8, 0xed, 0xfc, 0x0d, 0xfc, 0x07, 0x18,
    0xf7, 0x0c, 0x0d, 0x0a, 0xe4, 0x17, 0xee, 0xe5, 0x04, 0xd7, 0x11, 0xfd, 0xba,
    0x17, 0xf3, 0x00, 0xfd, 0xdd, 0x05, 0x09, 0xd3, 0x08, 0xed, 0xda, 0x0f, 0xd0,
    0xfc, 0xf7, 0xe2, 0xec, 0xf9, 0xf4, 0x06, 0xc6, 0xed, 0x08, 0xdb, 0xe1, 0x0d,
    0xf6, 0x12, 0xc0, 0xfa, 0xfc, 0xd8, 0x07, 0xfd, 0x1a, 0x23, 0xdf, 0x1d, 0x00,
    0x0a, 0xf9, 0x08, 0x04, 0xfd, 0xed, 0x0d, 0xfe, 0x07, 0x01, 0xe1, 0xfd, 0x1f,
    0xf1, 0x05, 0xfa, 0xdb, 0x10, 0xc4, 0x00, 0xff, 0x07, 0xf9, 0xf3, 0xbb, 0x26,
    0xcd, 0xf6, 0x15, 0xd7, 0x07, 0xe6, 0xc9, 0x05, 0xfa, 0xd7, 0x1a, 0xfb, 0xdd,
    0xdd, 0xf0, 0xec, 0xeb, 0xe1, 0x14, 0xd5, 0x0a, 0xcf, 0xf0, 0x0c, 0xf4, 0x0d,
    0x1d, 0xff, 0x09, 0xd0, 0x01, 0xfc, 0x13, 0x0a, 0x11, 0xf0, 0x0b, 0xbe, 0xfe,
    0xcc, 0x02, 0x0f, 0xf7, 0x04, 0xec, 0x12, 0xf2, 0xfb, 0xe9, 0xd4, 0x07, 0xfa,
    0xfd, 0xfa, 0xfc, 0x0c, 0xfb, 0xfc, 0x09, 0x03, 0xda, 0x08, 0x11, 0x07, 0xf1,
    0xfb, 0xfd, 0xf3, 0x10, 0x03, 0xfc, 0xdf, 0x06, 0x05, 0x0b, 0xf1, 0x13, 0x18,
    0xff, 0xed, 0x11, 0x23, 0xff, 0xfb, 0x10, 0x22, 0xfc, 0xed, 0xf9, 0x13, 0xaf,
    0x01, 0x0c, 0x1d, 0x01, 0xda, 0x08, 0x10, 0xba, 0xe8, 0xed, 0x19, 0xf9, 0xc2,
    0xec, 0x13, 0xe0, 0xe4, 0xd5, 0xff, 0xf7, 0x18, 0x1a, 0xec, 0x02, 0x12, 0xdf,
    0xff, 0xf7, 0xfb, 0x05, 0xfe, 0x08, 0x0a, 0xed, 0xf7, 0xf3, 0x12, 0x03, 0x05,
    0x20, 0x14, 0xf7, 0xff, 0x1d, 0xf2, 0x11, 0x10, 0x19, 0xea, 0x27, 0x0a, 0x0f,
    0xe6, 0xf6, 0x0a, 0xde, 0xe6, 0x19, 0xfe, 0x10, 0xe8, 0xf8, 0x1e, 0x81, 0xf1,
    0x1a, 0x23, 0x0d, 0xf9, 0xf1, 0xff, 0xe9, 0xe5, 0x03, 0x1e, 0x11, 0xde, 0x13,
    0x26, 0xf8, 0xdc, 0xdd, 0x0f, 0xfb, 0x01, 0x22, 0x05, 0x17, 0x19, 0x07, 0x1a,
    0xfe, 0x0f, 0x1e, 0xf2, 0x1d, 0xf2, 0x08, 0xf0, 0xf6, 0x1c, 0x07, 0xfa, 0xfb,
    0x1c, 0x0c, 0xe0, 0xe3, 0x01, 0x12, 0xf3, 0x0f, 0x07, 0xeb, 0xfe, 0x1d, 0xe2,
    0xfb, 0x14, 0x05, 0xe3, 0x04, 0xef, 0x0d, 0xe3, 0xe5, 0xfd, 0xb0, 0xf1, 0x09,
    0x13, 0xfc, 0xeb, 0x10, 0x24, 0xfe, 0xff, 0x1f, 0x11, 0xf1, 0x04, 0xf5, 0x2a,
    0x04, 0xe5, 0xfa, 0x00, 0x04, 0x07, 0x0a, 0xe8, 0x10, 0xf4, 0xf8, 0xea, 0x05,
    0x1b, 0x06, 0xf5, 0xfc, 0x1b, 0x09, 0x00, 0xf6, 0x1e, 0x10, 0x1a, 0x01, 0x30,
    0x12, 0xf2, 0xf4, 0x00, 0x03, 0x04, 0xf0, 0xfa, 0x00, 0xda, 0x08, 0x04, 0xfb,
    0x04, 0xfc, 0x18, 0x10, 0xd2, 0xfc, 0x03, 0x09, 0xfc, 0xd9, 0x13, 0x1c, 0xda,
    0x10, 0x03, 0xf4, 0x17, 0xd8, 0x0c, 0x05, 0xb8, 0x04, 0x25, 0x06, 0x01, 0xe9,
    0xf5, 0xf7, 0xf5, 0x17, 0x07, 0xff, 0xfb, 0xf1, 0x1f, 0x09, 0xcd, 0x1a, 0xff,
    0xf5, 0x05, 0xf0, 0x1c, 0x05, 0xfc, 0x09, 0x08, 0xee, 0x08, 0xe4, 0xfc, 0xe6,
    0xde, 0xe4, 0x15, 0xfe, 0x0c, 0xde, 0xf4, 0xfc, 0xf6, 0xe4, 0x1e, 0x0b, 0xf3,
    0xee, 0x1c, 0x0e, 0xce, 0x20, 0xf6, 0xf2, 0x09, 0xe9, 0xfa, 0x26, 0xde, 0xed,
    0x23, 0x06, 0xfd, 0xd9, 0x17, 0x1e, 0xea, 0x1a, 0x1e, 0x04, 0x02, 0x0c, 0x23,
    0x0e, 0xe1, 0x0d, 0xed, 0xee, 0xf6, 0xf1, 0x16, 0x07, 0xbc, 0x16, 0xff, 0x08,
    0x09, 0xe1, 0x0b, 0xe5, 0xdd, 0x10, 0x0c, 0x0c, 0xed, 0xf9, 0x11, 0xfb, 0xed,
    0xfc, 0x0d, 0xf5, 0xea, 0xd4, 0x19, 0x07, 0x01, 0xe9, 0x0c, 0xf9, 0x17, 0xe6,
    0xe8, 0x0c, 0xcf, 0xf8, 0x0f, 0x07, 0xe6, 0xe5, 0x01, 0x11, 0xdd, 0x01, 0x0b,
    0x05, 0xee, 0xe6, 0xfa, 0xeb, 0xcc, 0x0e, 0x27, 0xe8, 0xe5, 0xfd, 0x0f, 0x0e,
    0xe7, 0x01, 0x05, 0xfc, 0xed, 0xec, 0x0b, 0x07, 0xcc, 0x1a, 0x02, 0xf2, 0x0a,
    0xcf, 0xf3, 0x19, 0xed, 0x02, 0x0a, 0x0a, 0xf9, 0xd9, 0x0e, 0xf4, 0x0e, 0xfa,
    0x1e, 0x14, 0x0d, 0xdc, 0x05, 0x10, 0xf9, 0xfc, 0x2c, 0x0b, 0xfb, 0xdf, 0x06,
    0xf0, 0xf4, 0x0a, 0x13, 0xec, 0xf3, 0xe8, 0x01, 0xef, 0xed, 0x11, 0x03, 0x07,
    0xdb, 0x00, 0x07, 0xea, 0xec, 0xf1, 0xf8, 0x07, 0xe5, 0xf9, 0xea, 0x21, 0xe8,
    0x0a, 0x04, 0xf5, 0x03, 0xe3, 0xda, 0xfc, 0xe9, 0x13, 0xf8, 0xe2, 0x01, 0xc2,
    0xee, 0x07, 0xe7, 0x31, 0xf6, 0x0a, 0x0d, 0xb4, 0x0c, 0xed, 0x04, 0x05, 0x2c,
    0x03, 0x0e, 0xe9, 0xfd, 0xe8, 0x0c, 0x0b, 0x26, 0xef, 0xf0, 0xe2, 0x04, 0xfc,
    0x16, 0x09, 0x0e, 0xff, 0x00, 0xf7, 0xfc, 0xf0, 0xf7, 0x13, 0x00, 0xde, 0xca,
    0x05, 0x16, 0xe1, 0xf4, 0xea, 0xfc, 0xe7, 0xe6, 0x06, 0xf0, 0xe8, 0x02, 0xdd,
    0x01, 0x04, 0xff, 0xfc, 0x07, 0xac, 0xf0, 0xcf, 0x15, 0xfe, 0xd8, 0xe2, 0x2a,
    0xb4, 0xf3, 0xed, 0xfa, 0x09, 0xdf, 0x0a, 0x11, 0xee, 0xed, 0xd8, 0x00, 0x01,
    0xe7, 0x13, 0xf8, 0xfb, 0x08, 0xde, 0xeb, 0xfd, 0xdf, 0x16, 0xf2, 0xe9, 0xe8,
    0xed, 0xd3, 0x04, 0xf3, 0x1d, 0xee, 0x00, 0xdb, 0x17, 0xda, 0xe8, 0xed, 0xf4,
    0xe9, 0x14, 0xd9, 0x05, 0xd5, 0xf7, 0xf6, 0x0e, 0xd6, 0x9d, 0x01, 0xd6, 0xfb,
    0xe8, 0x06, 0xf4, 0x1a, 0xaa, 0x1f, 0xec, 0x1b, 0x16, 0xf8, 0xee, 0x2c, 0xd4,
    0xfc, 0xf5, 0xf3, 0xf9, 0xff, 0x19, 0x2a, 0xfe, 0x14, 0xfc, 0xe9, 0x03, 0x0c,
    0xf1, 0x0a, 0xf1, 0x1c, 0x0d, 0xf0, 0x08, 0xff, 0xfa, 0xfb, 0xfc, 0x12, 0x27,
    0xf9, 0x04, 0x1a, 0x1b, 0xeb, 0x17, 0x2a, 0x0b, 0x01, 0xf7, 0x16, 0xed, 0xe9,
    0x22, 0x0c, 0x3d, 0x0f, 0xe2, 0x09, 0xf4, 0x08, 0xa5, 0x2f, 0xf6, 0x1b, 0xe9,
    0xec, 0xf8, 0x07, 0xcd, 0x27, 0x08, 0x0f, 0x03, 0xf9, 0x14, 0x18, 0xdf, 0x26,
    0x17, 0x11, 0xf0, 0xe4, 0x00, 0xf4, 0x05, 0x0b, 0x10, 0xe7, 0xea, 0xf8, 0xff,
    0x04, 0x10, 0x01, 0x13, 0xe6, 0x18, 0x03, 0x15, 0xf3, 0x0c, 0x14, 0x0b, 0x05,
    0x00, 0x1f, 0xf3, 0x10, 0x0c, 0x07, 0x25, 0x10, 0xec, 0x09, 0xe7, 0xfa, 0x24,
    0x20, 0x3f, 0x27, 0xee, 0x1b, 0xe1, 0x0d, 0xb4, 0x02, 0xe8, 0xff, 0xec, 0xd4,
    0xfa, 0xf3, 0xc5, 0x14, 0x06, 0xf7, 0xeb, 0xf3, 0xf0, 0xed, 0xf3, 0x0f, 0x1a,
    0x0a, 0x0f, 0xf7, 0x10, 0x0d, 0x04, 0x1b, 0x03, 0xed, 0xfe, 0x11, 0x28, 0x09,
    0x02, 0x1a, 0x29, 0x07, 0x06, 0xfe, 0x10, 0xe4, 0xfc, 0xea, 0x21, 0xfc, 0x10,
    0x10, 0xe3, 0xf8, 0x13, 0x02, 0x0b, 0x08, 0xe0, 0x04, 0x04, 0xf1, 0xed, 0xf1,
    0x2d, 0x13, 0xe1, 0xfa, 0xf8, 0x19, 0xcf, 0xf3, 0xd4, 0xe6, 0xf6, 0xef, 0x0a,
    0xfe, 0x9f, 0x05, 0xe2, 0xef, 0x08, 0x04, 0xff, 0xf8, 0xd5, 0xf0, 0x16, 0x1d,
    0x08, 0xe5, 0xf2, 0x0d, 0x10, 0xf2, 0x32, 0x11, 0x09, 0xed, 0x1c, 0xfe, 0xf4,
    0x0d, 0x00, 0x0e, 0xfc, 0x0e, 0xf3, 0xec, 0xf5, 0xf9, 0x1b, 0x0e, 0x16, 0x1b,
    0xcb, 0x01, 0xfd, 0xec, 0x17, 0xed, 0xfe, 0xfc, 0xea, 0x07, 0xea, 0xeb, 0x1c,
    0xf3, 0xe1, 0xd1, 0xfc, 0xf6, 0xd7, 0x05, 0xc6, 0x0a, 0x1a, 0xcf, 0x05, 0xfa,
    0xd2, 0xf6, 0xdd, 0xfd, 0x05, 0xf0, 0x0e, 0x1f, 0xbc, 0x0c, 0x12, 0x03, 0xf5,
    0xff, 0xf3, 0xff, 0xef, 0x17, 0x18, 0x05, 0xf7, 0x1b, 0x1d, 0x11, 0x1d, 0xfd,
    0x01, 0xfd, 0x0a, 0x06, 0xe7, 0xf8, 0x13, 0xfe, 0x11, 0x26, 0x12, 0x03, 0xf2,
    0xf4, 0xd5, 0xfe, 0xf0, 0xf2, 0xf7, 0xf3, 0xff, 0x12, 0xcc, 0x13, 0xe9, 0xe8,
    0xfc, 0xd5, 0xdd, 0xf4, 0xfd, 0x0c, 0xb0, 0xe1, 0xf6, 0xde, 0xfc, 0xeb, 0xf8,
    0x04, 0xab, 0xce, 0x17, 0x09, 0xf9, 0xe5, 0xe4, 0x05, 0xcc, 0xf0, 0x1d, 0x13,
    0xfc, 0x0b, 0xee, 0x04, 0xe4, 0xf6, 0x23, 0x1c, 0xfd, 0x1a, 0x0e, 0x12, 0x01,
    0x0e, 0x1c, 0xfc, 0xdb, 0xf3, 0xf8, 0xf7, 0xec, 0x12, 0x07, 0xfd, 0x08, 0x0b,
    0xe1, 0xf0, 0xfd, 0x11, 0xf9, 0xef, 0xd2, 0xe6, 0x01, 0x1b, 0xbf, 0x02, 0x0c,
    0xf8, 0xe5, 0xea, 0x04, 0xf8, 0xbe, 0xf1, 0xf7, 0xf7, 0xfe, 0xe0, 0x00, 0xf6,
    0xb3, 0xc9, 0xf8, 0xe8, 0xff, 0xf7, 0x05, 0xed, 0xb7, 0xda, 0x13, 0xfe, 0xfc,
    0x06, 0xfd, 0xd9, 0xd9, 0xe3, 0x0f, 0x0a, 0xc3, 0xe3, 0xf5, 0xea, 0xfd, 0xf0,
    0xf9, 0x1b, 0xb5, 0x19, 0x04, 0xe2, 0xe4, 0xfa, 0x04, 0x25, 0xf4, 0x14, 0xf2,
    0xf5, 0xdd, 0xe3, 0xec, 0x17, 0xc0, 0xf7, 0x15, 0xf0, 0xe8, 0x1c, 0x04, 0x29,
    0xd3, 0xf8, 0x21, 0x10, 0x18, 0x35, 0x21, 0x11, 0xfb, 0x12, 0x27, 0xfe, 0x07,
    0x11, 0x1d, 0x22, 0x0e, 0x26, 0x20, 0x0a, 0x15, 0x0b, 0x22, 0x02, 0xe9, 0x1f,
    0x36, 0x02, 0x24, 0xfb, 0x20, 0x04, 0xf7, 0x18, 0x29, 0x01, 0x05, 0xf1, 0x0f,
    0x0d, 0xef, 0xfd, 0x15, 0x0b, 0x0e, 0x0b, 0xfe, 0x08, 0xf1, 0x02, 0x00, 0x09,
    0x00, 0x05, 0xff, 0x12, 0x00, 0x0a, 0xeb, 0xfd, 0x07, 0x14, 0x01, 0x00, 0xcf,
    0xf5, 0x20, 0xf5, 0x00, 0x1c, 0x1c, 0x04, 0x00, 0x25, 0x26, 0x0c, 0x0f, 0x12,
    0x12, 0x1c, 0x09, 0x19, 0x23, 0xeb, 0x13, 0xf6, 0xe9, 0xfd, 0x1e, 0x01, 0x03,
    0xf2, 0x14, 0x10, 0x07, 0xef, 0x10, 0x18, 0x18, 0xe5, 0xf4, 0xff, 0x0b, 0x12,
    0xfe, 0xff, 0xfa, 0xed, 0xf6, 0x12, 0x08, 0x02, 0x0d, 0x04, 0xce, 0x00, 0x01,
    0xf8, 0x03, 0xe9, 0x1a, 0x07, 0x0c, 0x12, 0x10, 0x15, 0x0e, 0xec, 0xf4, 0x0e,
    0x2c, 0xf2, 0xf7, 0x06, 0xff, 0x0c, 0x0e, 0x10, 0x11, 0xf3, 0xf6, 0xe6, 0xe8,
    0xf9, 0xec, 0xd2, 0xe6, 0xe4, 0xfa, 0xe1, 0xe7, 0xf8, 0xf7, 0xe6, 0x0f, 0xe7,
    0x0d, 0xc4, 0xec, 0xed, 0x15, 0xd9, 0x0d, 0xed, 0x19, 0xf9, 0xe7, 0xdc, 0x0d,
    0xef, 0x16, 0xf1, 0x04, 0x05, 0xf8, 0xf5, 0xf9, 0x06, 0xd4, 0xf4, 0xef, 0xf4,
    0x0e, 0xf1, 0x04, 0xff, 0x04, 0x17, 0xfd, 0x17, 0x02, 0x17, 0xf3, 0x08, 0xfe,
    0xe7, 0x10, 0xd5, 0xee, 0x08, 0xfe, 0xf5, 0x07, 0xe7, 0xff, 0xc9, 0xd2, 0xf4,
    0xdd, 0x08, 0xea, 0xd0, 0x09, 0xea, 0x03, 0xfb, 0x0a, 0xed, 0x03, 0x16, 0x07,
    0x0c, 0xe6, 0xe0, 0x00, 0xe7, 0x18, 0x18, 0x06, 0xff, 0x07, 0xf3, 0x05, 0x16,
    0x10, 0xfe, 0x01, 0xf8, 0x11, 0xf3, 0x13, 0xf9, 0xf3, 0xee, 0xf6, 0x03, 0x0b,
    0x1e, 0x13, 0xf8, 0x0e, 0x06, 0xf8, 0xf1, 0x17, 0x07, 0xf2, 0x02, 0x08, 0xdc,
    0x0a, 0xde, 0xe9, 0x03, 0x05, 0xeb, 0xe8, 0xeb, 0x10, 0xea, 0xe8, 0xe5, 0xd9,
    0xec, 0xf0, 0x15, 0xfa, 0x07, 0xfc, 0xf0, 0xf9, 0x0b, 0x0b, 0x0e, 0xe6, 0x04,
    0xfd, 0x07, 0x01, 0xf3, 0x18, 0x37, 0xeb, 0x1a, 0xe9, 0x15, 0x24, 0x24, 0x10,
    0x01, 0xeb, 0x06, 0x0e, 0xf2, 0x00, 0xf7, 0xff, 0xe2, 0x0a, 0xfc, 0x07, 0x03,
    0x14, 0xeb, 0xe5, 0xe8, 0xfd, 0xe0, 0x1f, 0xff, 0xf3, 0x00, 0x07, 0xdc, 0xfd,
    0xd5, 0xdd, 0x08, 0x02, 0xfc, 0xeb, 0xf3, 0x18, 0xd1, 0xe7, 0x0f, 0xf4, 0xf2,
    0xff, 0xfb, 0x00, 0xd8, 0xe9, 0x15, 0xee, 0x09, 0x07, 0x09, 0xd5, 0xf9, 0xde,
    0xf9, 0x06, 0x0a, 0x01, 0x0e, 0xe4, 0xea, 0x05, 0x1a, 0x3a, 0x12, 0x1d, 0x1a,
    0xe5, 0x0a, 0x05, 0x0d, 0x31, 0xdf, 0x02, 0x0a, 0xea, 0xde, 0x0e, 0xfd, 0xfe,
    0xe9, 0xf9, 0xfd, 0xe6, 0xdd, 0x04, 0xf6, 0xe0, 0xf3, 0xf7, 0xef, 0x08, 0xe9,
    0xe9, 0xe2, 0xfe, 0x0a, 0xd9, 0xef, 0xff, 0x0b, 0xe5, 0xdc, 0x0b, 0xf0, 0x01,
    0xfc, 0x04, 0xef, 0xd0, 0x00, 0x15, 0xef, 0xfd, 0xf7, 0xe7, 0xe7, 0xdd, 0xee,
    0x1e, 0xf2, 0xf7, 0x18, 0xf3, 0xd5, 0xed, 0xfb, 0x3b, 0x04, 0x16, 0x18, 0x00,
    0x08, 0xef, 0x0e, 0x06, 0xe3, 0xf5, 0x0f, 0xe9, 0xe7, 0x03, 0x06, 0x03, 0xdd,
    0x18, 0x39, 0xe7, 0xcd, 0xdd, 0xf6, 0xeb, 0xec, 0xf9, 0x11, 0x0b, 0xfa, 0xdc,
    0xdc, 0xec, 0xfe, 0xd4, 0x06, 0xf3, 0x00, 0xc4, 0xc8, 0x13, 0xd6, 0xf3, 0x0c,
    0xec, 0x0a, 0xd8, 0xcf, 0x04, 0xc9, 0xea, 0x04, 0xae, 0xf5, 0x0c, 0xcb, 0x40,
    0xfa, 0xde, 0xf9, 0xca, 0x28, 0xfe, 0xdf, 0x32, 0x03, 0xf7, 0x0e, 0xc3, 0xe6,
    0xf1, 0xf6, 0x13, 0x05, 0x13, 0x05, 0xe9, 0xeb, 0xff, 0x05, 0x18, 0xf9, 0xf8,
    0xf7, 0xf7, 0xe9, 0xe5, 0x1b, 0x18, 0xf8, 0x0a, 0x24, 0x0e, 0xf6, 0x01, 0x0e,
    0x06, 0x06, 0xfe, 0x00, 0x12, 0xf7, 0x0e, 0x02, 0xf2, 0xe5, 0xf1, 0xf6, 0xf2,
    0xf4, 0x08, 0xf6, 0xf1, 0x11, 0x13, 0x02, 0x0b, 0xf5, 0xf5, 0xfd, 0xd7, 0xe9,
    0x07, 0x0c, 0x0d, 0x09, 0x0b, 0x12, 0xdf, 0xfb, 0x12, 0xfc, 0x07, 0xf8, 0xf8,
    0x22, 0xf0, 0xf2, 0xe8, 0xf1, 0x0b, 0x00, 0xf3, 0x0b, 0xec, 0x12, 0xdd, 0xfa,
    0xf5, 0xf4, 0x1e, 0x0e, 0xe1, 0xf6, 0x19, 0x28, 0xf8, 0x0a, 0x12, 0xed, 0xfb,
    0xdf, 0x26, 0xfe, 0x06, 0x0b, 0x11, 0x04, 0x11, 0xeb, 0x06, 0x0e, 0xed, 0xfc,
    0x28, 0x10, 0xfd, 0xf8, 0xe5, 0xf3, 0x0f, 0x0c, 0x08, 0x14, 0xde, 0x15, 0xfd,
    0xf1, 0x07, 0xea, 0xfc, 0xfd, 0xc2, 0x04, 0xe6, 0x04, 0x09, 0xfb, 0x12, 0x16,
    0xf6, 0x01, 0xf9, 0xe5, 0xee, 0x08, 0x06, 0xf7, 0xf4, 0x07, 0xf2, 0x00, 0x06,
    0x0d, 0x01, 0xf3, 0xf2, 0xf0, 0x08, 0x1f, 0xea, 0x05, 0x2c, 0xf6, 0xf9, 0xfb,
    0xe9, 0xfd, 0x06, 0x15, 0x22, 0x07, 0x02, 0x13, 0xfa, 0xe5, 0xea, 0x0d, 0x00,
    0x16, 0xf4, 0x05, 0xf5, 0x12, 0xee, 0xeb, 0x13, 0x1a, 0xd7, 0x21, 0xea, 0x0d,
    0xf4, 0xe9, 0x1f, 0x0a, 0xf5, 0x25, 0xeb, 0x07, 0xf5, 0xfc, 0x27, 0x11, 0xfc,
    0x0a, 0xef, 0x01, 0xe2, 0xe9, 0x0a, 0x15, 0x0a, 0xe0, 0x0f, 0xf9, 0xea, 0x03,
    0xdd, 0xed, 0xd2, 0xed, 0x00, 0xf4, 0xfa, 0xf7, 0x2b, 0xfc, 0xe9, 0x0b, 0xe6,
    0x15, 0x03, 0x02, 0x28, 0x0c, 0xff, 0xfd, 0xfd, 0x05, 0xcd, 0xe1, 0xfe, 0xf0,
    0x0a, 0x15, 0xd8, 0xf2, 0xe8, 0xcf, 0x1c, 0x0e, 0xd7, 0x15, 0xd9, 0xf3, 0xfe,
    0xe9, 0xfb, 0x07, 0xf9, 0x0c, 0xde, 0x0e, 0x13, 0x01, 0x01, 0x01, 0x07, 0xfb,
    0x02, 0x08, 0xf8, 0xdf, 0x00, 0x0c, 0xd4, 0x02, 0x04, 0xfb, 0xea, 0xfb, 0x02,
    0x0b, 0xdf, 0xe7, 0xf6, 0x08, 0xfa, 0xee, 0x1d, 0x0d, 0xe1, 0x12, 0xf0, 0x0c,
    0xdf, 0x06, 0x17, 0xde, 0xe5, 0x12, 0x09, 0x0c, 0xc7, 0xf6, 0x07, 0x01, 0xf0,
    0x06, 0xd7, 0xe6, 0xd2, 0xee, 0x0d, 0x03, 0xf2, 0x07, 0xf7, 0x19, 0x1b, 0x0b,
    0xf5, 0x04, 0xe5, 0xf8, 0x09, 0x1b, 0xfc, 0xf1, 0xf4, 0x1d, 0xcd, 0x0a, 0x03,
    0x08, 0xe0, 0x12, 0x08, 0x22, 0xb8, 0xef, 0x0c, 0xf8, 0xff, 0x03, 0xed, 0x0c,
    0xf3, 0xec, 0x0d, 0x2c, 0xf3, 0x0a, 0x10, 0xf0, 0xfb, 0x00, 0xf6, 0x1e, 0x01,
    0xfb, 0x04, 0xe1, 0x14, 0xef, 0xe9, 0x08, 0xcb, 0xfb, 0xf9, 0xed, 0xf4, 0xdf,
    0xd4, 0xfd, 0xec, 0xfa, 0xf4, 0xf1, 0xfb, 0xe9, 0x06, 0x19, 0xdc, 0xfc, 0x1b,
    0xfa, 0xc5, 0xe6, 0x02, 0xe8, 0x02, 0x20, 0xfa, 0x16, 0xd7, 0xfc, 0x0a, 0xf3,
    0xe8, 0x04, 0x10, 0x00, 0xf4, 0xfd, 0xed, 0xd9, 0x03, 0x0d, 0xfb, 0xff, 0xde,
    0xf8, 0xf9, 0x2b, 0xf1, 0x17, 0xf7, 0x0d, 0x1d, 0xf5, 0xf4, 0x12, 0xe5, 0x07,
    0xe6, 0xf6, 0x13, 0x11, 0x00, 0x1a, 0xd6, 0x0c, 0x0a, 0xfa, 0x0c, 0xf7, 0xd3,
    0x00, 0xfc, 0x08, 0x05, 0xfb, 0xde, 0xe4, 0xf6, 0xfa, 0x05, 0x13, 0x0e, 0xfe,
    0xa4, 0x05, 0xf3, 0xef, 0xfa, 0x1e, 0x00, 0x02, 0xdf, 0xfa, 0xf0, 0xe9, 0xfb,
    0x22, 0xfd, 0xf1, 0xef, 0x0a, 0x0f, 0xf5, 0xfc, 0x36, 0x00, 0x03, 0x0c, 0x0a,
    0xea, 0x1e, 0xaf, 0xfe, 0x1b, 0xfa, 0x0d, 0xd8, 0x00, 0x0a, 0x99, 0xff, 0x10,
    0x06, 0x16, 0x0c, 0x01, 0xfe, 0xd8, 0xcd, 0x1b, 0x12, 0xf8, 0x1a, 0x03, 0xf4,
    0x00, 0xee, 0x0d, 0x21, 0xfb, 0x29, 0x09, 0xe2, 0x0d, 0xf2, 0x15, 0x14, 0xc0,
    0xf8, 0xd2, 0x04, 0x15, 0x0f, 0x0b, 0xf0, 0xe1, 0x14, 0xfd, 0xed, 0xfa, 0x18,
    0x15, 0xff, 0x01, 0xfe, 0xef, 0xf2, 0x0e, 0xfe, 0x07, 0xf7, 0x0c, 0xfa, 0x01,
    0x1c, 0x04, 0xdd, 0xe9, 0xf3, 0xf9, 0xee, 0xdb, 0x07, 0xf8, 0xdc, 0xf0, 0x11,
    0xf8, 0xea, 0xd1, 0x11, 0xf2, 0x05, 0xe5, 0xf9, 0xe6, 0xe6, 0x10, 0x12, 0x0b,
    0x03, 0xf6, 0xfb, 0xcd, 0xd3, 0x19, 0x18, 0x10, 0xfe, 0xf3, 0x05, 0xe3, 0xf5,
    0xdb, 0x0f, 0x1e, 0xfb, 0x06, 0x0d, 0xc0, 0xf0, 0xd4, 0x1d, 0x05, 0x0d, 0x12,
    0x0a, 0x97, 0xf9, 0xf3, 0xfd, 0xf5, 0xff, 0xff, 0xfe, 0xfd, 0x0d, 0xef, 0xf8,
    0xf6, 0x09, 0xf4, 0xf8, 0x0f, 0x0a, 0xd2, 0x0e, 0x13, 0xf2, 0x17, 0x07, 0xfd,
    0xd6, 0xec, 0x04, 0xf4, 0xf1, 0x0a, 0x0a, 0xf5, 0xc2, 0xee, 0x0f, 0xff, 0xe6,
    0xf9, 0x0c, 0xc9, 0xde, 0x04, 0x0c, 0xfe, 0x03, 0xfe, 0x06, 0xbe, 0xef, 0x07,
    0xf9, 0xf5, 0x10, 0xf2, 0xec, 0xc2, 0x16, 0x1d, 0xd3, 0x04, 0x13, 0xe6, 0xfa,
    0xbf, 0x21, 0x07, 0xed, 0xfe, 0x0f, 0x02, 0xfe, 0xd3, 0x0c, 0x0c, 0x16, 0xda,
    0x15, 0x12, 0x04, 0x09, 0xed, 0x0b, 0xfe, 0xd2, 0xfe, 0x16, 0x1f, 0x1d, 0xeb,
    0xff, 0x0a, 0xfc, 0x08, 0x20, 0x26, 0xf1, 0xf1, 0x07, 0x08, 0x13, 0xe7, 0x1c,
    0x15, 0xed, 0xec, 0xf1, 0xff, 0x08, 0x11, 0x03, 0x0f, 0xdf, 0xf4, 0x12, 0xde,
    0xdf, 0x07, 0xeb, 0xec, 0xee, 0xec, 0xfc, 0xe1, 0xf7, 0xe9, 0xf1, 0xf8, 0xea,
    0x01, 0xff, 0xcd, 0xff, 0x07, 0xef, 0xef, 0xef, 0xff, 0x05, 0x0a, 0xba, 0x04,
    0x17, 0xeb, 0x1c, 0xe5, 0x0b, 0xff, 0xd2, 0x1b, 0x11, 0x09, 0x12, 0x0e, 0x2d,
    0x14, 0xeb, 0x0e, 0x0e, 0x0f, 0x0b, 0xfc, 0x04, 0x06, 0x07, 0x03, 0x0f, 0xf0,
    0x3c, 0x0c, 0xec, 0x14, 0xe4, 0x13, 0x00, 0x10, 0x07, 0xeb, 0xbb, 0xf9, 0x0a,
    0x09, 0x0a, 0xe8, 0x20, 0xea, 0xeb, 0xfa, 0x11, 0xed, 0x0c, 0xfa, 0xff, 0xea,
    0xfe, 0x03, 0x0c, 0xf0, 0xfa, 0xdf, 0xd8, 0x0a, 0xf0, 0x0a, 0xae, 0x28, 0x02,
    0xe5, 0x09, 0x23, 0x03, 0xf9, 0xc2, 0x1c, 0x1b, 0x2a, 0xfa, 0x1d, 0x16, 0x08,
    0xec, 0xfa, 0x25, 0x18, 0x1a, 0x1e, 0x16, 0xff, 0x05, 0xce, 0x01, 0x03, 0x11,
    0xfc, 0xe1, 0x00, 0xff, 0xd9, 0xee, 0xf4, 0xfa, 0x05, 0xbf, 0xe3, 0xf8, 0xfb,
    0x10, 0xca, 0xfe, 0xea, 0xf9, 0xdd, 0x14, 0xf3, 0xf9, 0xd0, 0xf2, 0x03, 0x26,
    0x00, 0xf5, 0xe5, 0xe5, 0xe3, 0x0b, 0x10, 0x11, 0x04, 0xcf, 0xf9, 0x08, 0x14,
    0x06, 0x09, 0x09, 0x11, 0xf6, 0x1e, 0x13, 0x14, 0xee, 0x10, 0x04, 0xdc, 0xd6,
    0xd8, 0x10, 0xfd, 0xeb, 0x1c, 0x14, 0xd3, 0xf8, 0xb9, 0xf4, 0xfc, 0xf2, 0xf7,
    0x00, 0x03, 0xf8, 0xd1, 0xee, 0xef, 0xfb, 0xf6, 0xe0, 0xf1, 0x05, 0xfe, 0x01,
    0xcb, 0x0f, 0xe9, 0xd6, 0x04, 0xe6, 0xf6, 0x17, 0xe1, 0xe5, 0xef, 0x05, 0x1e,
    0x0a, 0x0e, 0x03, 0x01, 0x3b, 0xf2, 0x00, 0xfd, 0xf5, 0x06, 0xf0, 0x0f, 0xfc,
    0xfd, 0x22, 0xed, 0x09, 0x14, 0x0c, 0xf9, 0xee, 0xfd, 0xfd, 0xe5, 0x07, 0x08,
    0xef, 0xeb, 0x03, 0x05, 0x0f, 0xd5, 0xed, 0xe2, 0x12, 0x14, 0x05, 0x00, 0xef,
    0xef, 0xfe, 0xd1, 0xf3, 0x04, 0xff, 0x02, 0xee, 0x04, 0xfb, 0xf8, 0xf1, 0xef,
    0x08, 0x13, 0x14, 0xf4, 0x05, 0x0b, 0xf2, 0x0e, 0xf2, 0x14, 0x13, 0xe9, 0x0d,
    0xf7, 0xfe, 0x0e, 0x27, 0x0a, 0x00, 0x03, 0x19, 0x0a, 0x0c, 0x04, 0xf9, 0xf9,
    0x0a, 0xf5, 0x01, 0x0a, 0xfd, 0xf7, 0xfd, 0xf0, 0xf0, 0xf5, 0x09, 0x18, 0xd0,
    0xf8, 0xfb, 0xfc, 0xea, 0xef, 0xee, 0x05, 0xd6, 0xef, 0x01, 0xdd, 0xef, 0xf3,
    0xfe, 0x2d, 0xfe, 0xf4, 0x0d, 0xf0, 0x0e, 0x04, 0x06, 0x07, 0xfa, 0xf0, 0x2b,
    0xf4, 0x06, 0xec, 0x12, 0x22, 0x06, 0x0c, 0x2b, 0xf9, 0x10, 0xfb, 0x15, 0x05,
    0x04, 0x0b, 0x21, 0x22, 0xe2, 0xe3, 0xff, 0xff, 0x00, 0x00, 0x00, 0x09, 0x10,
    0x00, 0x00, 0x00, 0x09, 0x00, 0x00, 0x00, 0x14, 0x00, 0x00, 0x00, 0x34, 0x00,
    0x00, 0x00, 0x02, 0x00, 0x00, 0x00, 0x0a, 0x00, 0x00, 0x00, 0x00, 0x02, 0x00,
    0x00, 0x1c, 0x00, 0x00, 0x00, 0x73, 0x65, 0x71, 0x75, 0x65, 0x6e, 0x74, 0x69,
    0x61, 0x6c, 0x5f, 0x39, 0x36, 0x2f, 0x73, 0x6f, 0x66, 0x74, 0x6d, 0x61, 0x78,
    0x2f, 0x4d, 0x61, 0x74, 0x4d, 0x75, 0x6c, 0x00, 0x00, 0x00, 0x00, 0x5c, 0xe3,
    0xff, 0xff, 0x08, 0x00, 0x00, 0x00, 0x0c, 0x00, 0x00, 0x00, 0x01, 0x00, 0x00,
    0x00, 0x14, 0x07, 0xa1, 0x3b, 0x01, 0x00, 0x00, 0x00, 0x00, 0x00, 0x00, 0x00,
    0x00, 0x00, 0x00, 0x00, 0x00, 0x00, 0x00, 0x00, 0x6a, 0xe4, 0xff, 0xff, 0x04,
    0x00, 0x00, 0x00, 0x20, 0x00, 0x00, 0x00, 0x2c, 0x02, 0x00, 0x00, 0x60, 0x03,
    0x00, 0x00, 0xd7, 0x01, 0x00, 0x00, 0x51, 0x04, 0x00, 0x00, 0x3e, 0x03, 0x00,
    0x00, 0x6a, 0x07, 0x00, 0x00, 0x36, 0x04, 0x00, 0x00, 0xf3, 0xff, 0xff, 0xff,
    0x7a, 0xe4, 0xff, 0xff, 0x00, 0x00, 0x00, 0x02, 0x10, 0x00, 0x00, 0x00, 0x08,
    0x00, 0x00, 0x00, 0x10, 0x00, 0x00, 0x00, 0x20, 0x00, 0x00, 0x00, 0x01, 0x00,
    0x00, 0x00, 0x08, 0x00, 0x00, 0x00, 0x0c, 0x00, 0x00, 0x00, 0x63, 0x6f, 0x6e,
    0x76, 0x32, 0x64, 0x32, 0x2f, 0x62, 0x69, 0x61, 0x73, 0x00, 0x00, 0x00, 0x00,
    0xe0, 0xe3, 0xff, 0xff, 0x08, 0x00, 0x00, 0x00, 0x28, 0x00, 0x00, 0x00, 0x08,
    0x00, 0x00, 0x00, 0x82, 0x66, 0x7a, 0x38, 0xb0, 0x3f, 0xb8, 0x38, 0x98, 0xde,
    0x69, 0x38, 0x74, 0x8c, 0x93, 0x38, 0xdd, 0xa9, 0x66, 0x38, 0x7a, 0xe1, 0x3f,
    0x38, 0x19, 0xfc, 0x6c, 0x38, 0xb5, 0xda, 0x60, 0x38, 0x08, 0x00, 0x00, 0x00,
    0x00, 0x00, 0x00, 0x00, 0x00, 0x00, 0x00, 0x00, 0x00, 0x00, 0x00, 0x00, 0x00,
    0x00, 0x00, 0x00, 0x00, 0x00, 0x00, 0x00, 0x00, 0x00, 0x00, 0x00, 0x00, 0x00,
    0x00, 0x00, 0x00, 0x00, 0x00, 0x00, 0x00, 0x00, 0x00, 0x00, 0x00, 0x00, 0x00,
    0x00, 0x00, 0x00, 0x00, 0x00, 0x00, 0x00, 0x00, 0x00, 0x00, 0x00, 0x00, 0x00,
    0x00, 0x00, 0x00, 0x00, 0x00, 0x00, 0x00, 0x00, 0x00, 0x00, 0x00, 0x00, 0x3e,
    0xe5, 0xff, 0xff, 0x04, 0x00, 0x00, 0x00, 0x00, 0x08, 0x00, 0x00, 0x20, 0x2c,
    0x0f, 0x03, 0xc9, 0x3a, 0xeb, 0xeb, 0x03, 0x00, 0x1a, 0x35, 0x50, 0xea, 0x2d,
    0x0e, 0x33, 0x22, 0xda, 0x23, 0xdd, 0x22, 0x21, 0xf4, 0x13, 0x33, 0xf9, 0x11,
    0x3e, 0x02, 0x3f, 0xe7, 0xdb, 0xec, 0xea, 0x0e, 0x17, 0x25, 0x12, 0xfa, 0xf9,
    0x01, 0xdb, 0x12, 0xd2, 0x00, 0xfb, 0xe3, 0xcf, 0x30, 0xc0, 0x33, 0x4a, 0x08,
    0x1b, 0x33, 0x21, 0x26, 0x28, 0x08, 0xde, 0x43, 0x21, 0xff, 0x08, 0xe9, 0x1d,
    0xe5, 0xe8, 0x29, 0xfa, 0x03, 0xf6, 0x1b, 0xe0, 0x3a, 0x28, 0xb6, 0x14, 0xd3,
    0x14, 0xe7, 0xff, 0xec, 0x06, 0xdd, 0xeb, 0xe6, 0x03, 0x03, 0xc2, 0xcf, 0xed,
    0xed, 0xf5, 0xaf, 0x07, 0xf1, 0xe5, 0xf9, 0x95, 0x1a, 0x15, 0xe0, 0xec, 0xd9,
    0x13, 0xd1, 0xcd, 0xda, 0x21, 0xd3, 0x2f, 0x24, 0xe6, 0x5a, 0xbe, 0xf9, 0x0e,
    0xb7, 0x12, 0xe8, 0x14, 0xe8, 0x22, 0xeb, 0x6e, 0x01, 0x42, 0xdb, 0x30, 0x17,
    0x22, 0x13, 0xe1, 0x1d, 0x05, 0x05, 0xd4, 0xfe, 0x0c, 0xba, 0x2f, 0xf9, 0x48,
    0xd7, 0xfa, 0x35, 0x09, 0x08, 0x0d, 0x13, 0xc5, 0xeb, 0x04, 0xaf, 0xec, 0xcc,
    0x2a, 0x15, 0x2a, 0xeb, 0xe7, 0x3a, 0xe1, 0x1d, 0x0e, 0x43, 0x0c, 0xf7, 0x0a,
    0xf4, 0x18, 0xb1, 0x4a, 0x16, 0x38, 0x21, 0xde, 0x43, 0xb5, 0x0e, 0xd7, 0x03,
    0x24, 0x24, 0xf3, 0x03, 0x4a, 0xdc, 0x48, 0xd7, 0x46, 0xdd, 0x30, 0xbe, 0x2e,
    0xc9, 0x19, 0x65, 0xcc, 0x09, 0x06, 0xdb, 0xc6, 0xe5, 0xff, 0x1b, 0x2a, 0xeb,
    0xcf, 0xdd, 0x10, 0xd0, 0xf0, 0x35, 0xe7, 0x0c, 0xe1, 0xcf, 0xce, 0xea, 0xe5,
    0x03, 0x20, 0x00, 0xcd, 0xab, 0xff, 0x06, 0x10, 0x59, 0xff, 0xf9, 0xe4, 0x1c,
    0xf6, 0x1c, 0xf3, 0x12, 0x70, 0xef, 0xcb, 0xcf, 0x2e, 0xeb, 0x10, 0x7f, 0x0e,
    0xe4, 0xe3, 0xe8, 0xd6, 0xdb, 0xe7, 0x22, 0x25, 0xc3, 0x42, 0xee, 0x1d, 0x00,
    0x1d, 0x11, 0x1a, 0xfa, 0xe4, 0x14, 0x04, 0xdf, 0x07, 0x2c, 0x16, 0xdc, 0x34,
    0xd4, 0xfc, 0xef, 0x0d, 0x26, 0xdf, 0xd0, 0xef, 0xf1, 0xf4, 0xe5, 0xec, 0x16,
    0xdb, 0xf1, 0x56, 0xfa, 0x07, 0x16, 0xfd, 0x1e, 0x08, 0xd4, 0xd3, 0xec, 0xfc,
    0xe7, 0xd3, 0x26, 0xe1, 0x17, 0x30, 0xeb, 0x04, 0x25, 0x1e, 0x01, 0x1c, 0xdd,
    0x16, 0xda, 0x07, 0x01, 0xfa, 0x0a, 0x00, 0xeb, 0x2b, 0xfc, 0x19, 0xf9, 0x02,
    0x0d, 0xe3, 0xfb, 0x06, 0xe6, 0xf9, 0xf4, 0x47, 0x04, 0xbe, 0x14, 0x22, 0x1a,
    0x38, 0x0a, 0x1b, 0x1a, 0x03, 0xee, 0xda, 0x0d, 0xe9, 0x1c, 0x19, 0xe9, 0x96,
    0xfb, 0x2c, 0xe6, 0x18, 0x0e, 0xfa, 0xfb, 0x08, 0xdc, 0xfe, 0xeb, 0x29, 0x06,
    0x01, 0x01, 0xde, 0x00, 0xda, 0xff, 0xf4, 0x1e, 0x05, 0xd7, 0x29, 0xf3, 0x08,
    0xe3, 0xfa, 0xf2, 0x25, 0xf5, 0xfd, 0x20, 0x12, 0xf4, 0x0c, 0xf9, 0x15, 0x08,
    0xee, 0xf9, 0x01, 0xf7, 0xe7, 0x22, 0xc9, 0xd9, 0x81, 0xed, 0x17, 0xe4, 0x2a,
    0xf8, 0x07, 0xea, 0x02, 0xe1, 0x0e, 0xff, 0x11, 0x20, 0xe5, 0xd9, 0xa2, 0x1c,
    0x0e, 0xf7, 0x1f, 0x16, 0xf5, 0xec, 0x08, 0xe9, 0x02, 0xf1, 0x26, 0x1c, 0xf9,
    0xe4, 0x15, 0x08, 0xd2, 0xe8, 0xf0, 0x08, 0x0a, 0xd8, 0xfe, 0x1c, 0x12, 0x1b,
    0xfb, 0x14, 0x13, 0x00, 0x05, 0x0d, 0x29, 0xfa, 0x22, 0x18, 0x1a, 0xd9, 0x0f,
    0xe7, 0x24, 0x2b, 0xf2, 0x2d, 0xce, 0x1f, 0xd0, 0xe5, 0x26, 0x05, 0x05, 0x1e,
    0x12, 0xc5, 0x11, 0xf8, 0x1d, 0xfe, 0xf1, 0x22, 0xd2, 0xeb, 0xf8, 0xf2, 0xdb,
    0xf8, 0xef, 0x03, 0xf4, 0xc8, 0x2b, 0x35, 0xf9, 0x34, 0xf5, 0xf7, 0xe7, 0x06,
    0x0c, 0x1e, 0xab, 0x03, 0xe9, 0xff, 0x0c, 0xea, 0x34, 0x41, 0x0e, 0x18, 0xea,
    0xe9, 0x1c, 0x11, 0xf9, 0xe4, 0x18, 0x41, 0x39, 0x18, 0xf4, 0x16, 0x06, 0xe6,
    0x02, 0xbe, 0x16, 0xa5, 0x40, 0xf0, 0xf0, 0xdd, 0xeb, 0x28, 0xef, 0x32, 0xe3,
    0x23, 0xdf, 0xd3, 0xb9, 0xc2, 0xf1, 0xeb, 0x23, 0xd8, 0x1d, 0xda, 0xeb, 0x38,
    0x0e, 0xfc, 0x19, 0x46, 0xcf, 0xd8, 0x0b, 0xc9, 0xe8, 0xb9, 0x3e, 0xd7, 0x46,
    0xe2, 0x24, 0xe8, 0xdc, 0x05, 0xda, 0xe3, 0xb5, 0xca, 0xd3, 0xab, 0x01, 0x99,
    0x0e, 0x07, 0x71, 0xe8, 0x16, 0x21, 0x32, 0x26, 0x0f, 0x64, 0xcf, 0xd9, 0xbb,
    0xc6, 0xe4, 0xb2, 0x18, 0x03, 0x0f, 0x21, 0xa2, 0x42, 0xdd, 0x23, 0xe9, 0x5a,
    0x05, 0xc8, 0x0a, 0xfe, 0xfd, 0x16, 0x7f, 0x0e, 0xd9, 0x15, 0xc9, 0xe1, 0xf6,
    0x12, 0x27, 0x1a, 0xdc, 0xbf, 0x21, 0xd0, 0x0d, 0xfd, 0x72, 0x06, 0x03, 0xf9,
    0x12, 0xf8, 0x20, 0x20, 0x02, 0x44, 0xfe, 0xf0, 0xff, 0x19, 0x1d, 0xec, 0x53,
    0xff, 0x36, 0x03, 0xf7, 0xbe, 0x3f, 0xae, 0x02, 0x5f, 0xe8, 0xc9, 0x21, 0xcd,
    0xf0, 0xdf, 0xdd, 0x27, 0x21, 0xf3, 0xc9, 0xed, 0x34, 0xfc, 0xeb, 0x5d, 0xeb,
    0x17, 0x33, 0x07, 0xcc, 0x11, 0x2b, 0x3c, 0x27, 0x40, 0x9f, 0x01, 0x4a, 0xf3,
    0xef, 0x05, 0xdc, 0xfa, 0xda, 0xe8, 0xd5, 0x0f, 0xe8, 0x1c, 0x3a, 0x4c, 0x8c,
    0x2f, 0x0f, 0xfd, 0xe6, 0x55, 0x0a, 0x5f, 0xf6, 0x3d, 0x14, 0x0a, 0x0d, 0x1e,
    0x13, 0x10, 0xb6, 0xae, 0x15, 0x15, 0xdb, 0x08, 0x31, 0xe9, 0x4d, 0x1a, 0xe8,
    0x60, 0xb0, 0x0f, 0x13, 0x11, 0x0a, 0xf3, 0xd0, 0xe3, 0x1f, 0x1d, 0x41, 0x19,
    0x3b, 0x0d, 0xea, 0x1f, 0xbe, 0x60, 0xce, 0x2f, 0x84, 0xf9, 0xe5, 0xd3, 0xe7,
    0xfc, 0x02, 0x30, 0x09, 0x0c, 0xf6, 0xfd, 0x05, 0x09, 0xf3, 0xff, 0x83, 0xf4,
    0xca, 0xfa, 0xf9, 0x37, 0x27, 0x3b, 0x24, 0x18, 0x0b, 0x20, 0xbc, 0x37, 0x02,
    0x02, 0xbf, 0xe6, 0x1a, 0xfa, 0xdc, 0x3b, 0xf5, 0x0e, 0xe1, 0x25, 0xf3, 0x05,
    0x29, 0x01, 0xf1, 0xa5, 0xed, 0x9b, 0x0a, 0xfd, 0xfe, 0x42, 0x0c, 0x21, 0xe2,
    0x1b, 0x0b, 0x11, 0xf3, 0xfc, 0x5f, 0xf2, 0x64, 0xcd, 0x1d, 0xd3, 0x08, 0x3a,
    0x00, 0xe5, 0xee, 0xf1, 0xf0, 0xcd, 0xed, 0x17, 0x7f, 0x0a, 0x22, 0xe0, 0xfe,
    0xec, 0xe4, 0x0a, 0xed, 0xf5, 0xca, 0x0b, 0xfb, 0xd5, 0x01, 0xe4, 0x24, 0x11,
    0xeb, 0xb2, 0xef, 0xe1, 0x1a, 0x23, 0x0e, 0x1c, 0xdd, 0xe9, 0xda, 0x16, 0xc4,
    0xe9, 0xed, 0x0a, 0xf9, 0xf2, 0x17, 0xf6, 0xf2, 0xff, 0x07, 0xf6, 0x0a, 0xee,
    0xee, 0x01, 0x01, 0x33, 0x27, 0x11, 0x22, 0x14, 0xe3, 0xfc, 0x04, 0x28, 0x23,
    0x21, 0x02, 0xfc, 0xee, 0xfb, 0x09, 0x30, 0x39, 0xd9, 0x0c, 0x3e, 0xe4, 0xdc,
    0x19, 0x12, 0x12, 0x22, 0xf0, 0x0c, 0xda, 0xf9, 0xfa, 0x2e, 0xef, 0x0c, 0x3e,
    0xbc, 0xdc, 0xf2, 0xf6, 0xeb, 0xcc, 0xda, 0xf4, 0xf8, 0xe9, 0xed, 0xd4, 0x13,
    0x0d, 0xcb, 0x20, 0xef, 0x05, 0xf2, 0x13, 0xf7, 0x1b, 0xfd, 0x1f, 0xf6, 0xed,
    0xf2, 0xf8, 0xf8, 0xf7, 0xe8, 0x3e, 0x06, 0xca, 0x01, 0xe3, 0xd3, 0xe8, 0x1f,
    0xf6, 0x0b, 0x00, 0x31, 0xd8, 0x1b, 0x29, 0xc3, 0x40, 0x0e, 0x13, 0xf0, 0xee,
    0xfa, 0xfe, 0x2e, 0x09, 0x13, 0x14, 0x05, 0xb2, 0x21, 0xd5, 0x1b, 0x1b, 0xdb,
    0x14, 0x11, 0x0c, 0xf9, 0xf0, 0xe1, 0xf0, 0xe9, 0xf5, 0x3c, 0xf1, 0x20, 0x03,
    0xe1, 0x3c, 0xea, 0x12, 0xef, 0xdd, 0xd3, 0x02, 0xca, 0x26, 0x1e, 0x2a, 0x0c,
    0xc3, 0x23, 0x0a, 0xe1, 0x7c, 0xe8, 0xe5, 0x0a, 0xe5, 0xe6, 0xed, 0xcb, 0x14,
    0x1c, 0x15, 0x20, 0xcf, 0x0d, 0xc3, 0xe1, 0x38, 0xde, 0x32, 0x38, 0x00, 0x07,
    0xd7, 0xd6, 0x1b, 0x2e, 0xe4, 0x22, 0xd4, 0x2d, 0xc9, 0xcd, 0xed, 0x1e, 0x11,
    0x07, 0x0a, 0xb8, 0xec, 0x00, 0xde, 0xf7, 0xf5, 0x0d, 0xdc, 0xf3, 0xdc, 0xee,
    0x6e, 0x16, 0x49, 0xf8, 0x05, 0xeb, 0x21, 0xde, 0x09, 0xd7, 0x1f, 0xff, 0x03,
    0xf3, 0x0b, 0x03, 0xfd, 0xe2, 0xc9, 0x0d, 0x1b, 0xb2, 0x1a, 0x09, 0xf9, 0x17,
    0x37, 0xdb, 0xe1, 0xe7, 0xac, 0x11, 0x08, 0x20, 0xd5, 0x4c, 0xf6, 0x81, 0x24,
    0x21, 0x1c, 0xe0, 0xf8, 0x10, 0xea, 0xad, 0xc1, 0xb4, 0x06, 0xca, 0x02, 0x16,
    0x03, 0xb4, 0x3d, 0x11, 0xfd, 0x29, 0xfc, 0xf1, 0x8d, 0x2f, 0x3d, 0xc4, 0xf9,
    0xf1, 0xd6, 0x3f, 0xe3, 0x9f, 0x31, 0x09, 0x33, 0x21, 0xf9, 0xff, 0xc3, 0x23,
    0x07, 0xcd, 0xdf, 0x05, 0xcc, 0xfa, 0xec, 0xc5, 0x36, 0x29, 0x0b, 0xfb, 0x14,
    0xef, 0xca, 0x01, 0x10, 0x13, 0x1c, 0x14, 0x11, 0x24, 0xd9, 0xd2, 0x10, 0xda,
    0xd8, 0x10, 0xf6, 0x29, 0xbb, 0xf3, 0x5c, 0x08, 0xe6, 0xf4, 0xb4, 0xe4, 0x01,
    0xa6, 0xef, 0xf1, 0x31, 0x09, 0xef, 0x1d, 0xd0, 0xf7, 0x5e, 0x09, 0x02, 0x21,
    0x08, 0x38, 0x28, 0x03, 0xff, 0x36, 0xf9, 0x47, 0x26, 0x2f, 0x9c, 0xf9, 0x2c,
    0x1a, 0xcb, 0xfa, 0x33, 0x29, 0x23, 0xf4, 0xe2, 0x49, 0xee, 0x28, 0xd1, 0xfc,
    0xe4, 0x29, 0x3e, 0x24, 0xfd, 0xd9, 0x29, 0x13, 0x07, 0x25, 0xec, 0xcf, 0x26,
    0xd9, 0xe6, 0x13, 0xf4, 0xd2, 0x5e, 0xdb, 0x1b, 0x10, 0x01, 0x3e, 0xe0, 0x52,
    0x1a, 0x16, 0x13, 0x22, 0x0d, 0x0e, 0xd8, 0xd4, 0x20, 0x2b, 0xe4, 0x0c, 0x16,
    0x11, 0x15, 0x4c, 0xe9, 0x40, 0x19, 0x07, 0x24, 0x20, 0xfe, 0xca, 0x11, 0x56,
    0x83, 0x30, 0xf9, 0x29, 0xf8, 0xf5, 0x05, 0x02, 0x07, 0xd2, 0x15, 0x18, 0x2e,
    0xe0, 0xc6, 0x32, 0xb0, 0xf7, 0xc7, 0xea, 0xd8, 0x0a, 0x0f, 0xca, 0x16, 0xe9,
    0xe4, 0x1b, 0x21, 0xc9, 0xed, 0x02, 0x40, 0x1c, 0x34, 0x0c, 0x35, 0xdf, 0xe4,
    0xee, 0x1b, 0x34, 0x01, 0x09, 0x4d, 0xe4, 0xb8, 0x31, 0x62, 0x00, 0xf5, 0x1a,
    0x1d, 0x0e, 0x05, 0xba, 0x03, 0xd1, 0x2a, 0xcc, 0x44, 0xbb, 0x21, 0xd9, 0xad,
    0xe7, 0xbd, 0x05, 0x0b, 0xcc, 0xce, 0xd1, 0xf1, 0xf5, 0x48, 0xe2, 0x08, 0xc8,
    0x1e, 0x0a, 0xeb, 0x2f, 0xc5, 0x36, 0xfd, 0xf6, 0xe2, 0x17, 0x0a, 0x1b, 0x36,
    0xb6, 0x4d, 0xd7, 0xda, 0x13, 0xe9, 0x19, 0x1e, 0x23, 0x25, 0xfa, 0xdb, 0xc1,
    0x32, 0x29, 0xed, 0x2c, 0xbc, 0xcb, 0xbe, 0xf3, 0x02, 0xf7, 0x2f, 0x3a, 0xd4,
    0xaf, 0x31, 0x08, 0x08, 0xff, 0xf3, 0xed, 0xfa, 0x9e, 0xff, 0xf1, 0xe9, 0x13,
    0x18, 0x45, 0x09, 0xcf, 0xd2, 0xe2, 0xcb, 0x21, 0x11, 0xcd, 0x09, 0x02, 0x41,
    0x09, 0xcc, 0xf1, 0x42, 0x2c, 0xeb, 0x2e, 0x2a, 0x23, 0xc6, 0xd2, 0xaa, 0x0a,
    0x05, 0xec, 0x41, 0x48, 0xc1, 0x1f, 0xd9, 0x5e, 0xd7, 0x18, 0x35, 0x43, 0x0c,
    0x3f, 0x3c, 0xfc, 0xde, 0x12, 0x40, 0x20, 0x99, 0x3a, 0xb2, 0x01, 0x04, 0xfb,
    0x0b, 0x70, 0x01, 0xe4, 0xe9, 0xe2, 0xd5, 0x1b, 0xf7, 0x3c, 0xa3, 0x42, 0x4f,
    0x28, 0xf3, 0x2c, 0x0f, 0x5c, 0x28, 0xf8, 0xf3, 0x37, 0x39, 0x0f, 0xce, 0x7a,
    0xc5, 0x22, 0x47, 0x01, 0xf9, 0x7f, 0x0e, 0xde, 0x2a, 0xef, 0xc7, 0xee, 0x42,
    0xce, 0x33, 0xf9, 0xf9, 0x1d, 0xe4, 0x1b, 0x22, 0xd3, 0x20, 0x41, 0x16, 0x3e,
    0xd5, 0x02, 0xe4, 0xfa, 0xea, 0x31, 0xb2, 0xce, 0xde, 0x11, 0x30, 0x23, 0x45,
    0x63, 0xde, 0x35, 0xf4, 0xf6, 0xb1, 0x14, 0xc6, 0x45, 0xda, 0x12, 0xf8, 0x1a,
    0xdc, 0x0b, 0xec, 0x4e, 0x1b, 0xf6, 0xfb, 0x40, 0x0b, 0x43, 0xd8, 0x3d, 0x91,
    0x1c, 0xf9, 0xf6, 0xfc, 0xe7, 0x17, 0x25, 0x2d, 0x03, 0x20, 0x09, 0x35, 0x45,
    0x3b, 0xab, 0x52, 0xe9, 0x2a, 0x23, 0x28, 0x25, 0x26, 0x56, 0xea, 0x33, 0x19,
    0x05, 0x57, 0x07, 0x71, 0xcf, 0x5f, 0x13, 0xf0, 0x10, 0x03, 0xfb, 0x0c, 0xfb,
    0xf7, 0xcd, 0x10, 0xcd, 0x25, 0x01, 0xd3, 0x21, 0x5a, 0xd4, 0x5a, 0xf6, 0x0b,
    0x02, 0xad, 0xb1, 0xf9, 0xe5, 0xeb, 0xf7, 0xd0, 0xd6, 0xa8, 0x23, 0x1c, 0xe3,
    0x64, 0xb2, 0x26, 0xfe, 0xe1, 0xf9, 0x35, 0x00, 0xd7, 0x54, 0xa5, 0xfe, 0x4d,
    0x14, 0x0d, 0x1f, 0x03, 0x30, 0xe6, 0x30, 0x03, 0x0f, 0xef, 0xff, 0x24, 0xe4,
    0x3b, 0xf2, 0x45, 0x16, 0x2b, 0x04, 0xe5, 0xfc, 0x05, 0xe0, 0xfb, 0x22, 0x05,
    0xd5, 0xca, 0xe1, 0xf0, 0x88, 0xe5, 0x29, 0x34, 0xd4, 0xfd, 0xc2, 0x1b, 0x34,
    0xa2, 0xc2, 0x06, 0x0e, 0xd6, 0x28, 0xf7, 0xcf, 0xa4, 0x32, 0x2a, 0x23, 0x2d,
    0xf8, 0x17, 0x3b, 0xe1, 0xd4, 0x18, 0x1e, 0xd6, 0x53, 0xf4, 0x04, 0x38, 0x08,
    0xf9, 0x1f, 0x0e, 0x39, 0x0b, 0xe0, 0x22, 0x3f, 0xea, 0xc6, 0x13, 0xbf, 0x4c,
    0x11, 0x51, 0xe9, 0x1f, 0x04, 0xf8, 0xfb, 0xcd, 0x34, 0xcc, 0xe0, 0xf8, 0xaa,
    0xb7, 0xa7, 0xdd, 0xbb, 0x00, 0x1d, 0x16, 0xed, 0xde, 0xde, 0x20, 0x01, 0x8c,
    0xb9, 0x13, 0xdc, 0xc0, 0x0e, 0xca, 0xc0, 0xfc, 0xdf, 0x2c, 0x31, 0xca, 0xf8,
    0x2c, 0xd5, 0xef, 0xe0, 0x28, 0x4d, 0xee, 0x22, 0x93, 0x39, 0x58, 0xe4, 0xdc,
    0x06, 0xfe, 0xfc, 0x26, 0x44, 0xe4, 0x55, 0xbf, 0xe2, 0x25, 0xce, 0x40, 0x0d,
    0x32, 0xe4, 0xcb, 0xeb, 0xe9, 0xfc, 0xd3, 0x4c, 0xe2, 0x01, 0xa5, 0xbc, 0xb2,
    0xbf, 0x02, 0xe7, 0x5e, 0xe5, 0x46, 0xee, 0xb2, 0xd2, 0xde, 0x0d, 0xac, 0x9b,
    0x1e, 0x06, 0xbf, 0x1f, 0xc5, 0x22, 0x51, 0xe1, 0x3c, 0x5b, 0x81, 0xdc, 0x07,
    0xaf, 0x1b, 0xc4, 0xfc, 0x1c, 0x08, 0x19, 0x08, 0x06, 0x49, 0xec, 0xac, 0xc6,
    0xdb, 0x30, 0xd1, 0xfb, 0x28, 0xd1, 0xea, 0xf1, 0xff, 0x34, 0xdc, 0xf7, 0x0b,
    0x15, 0x38, 0xe2, 0xd8, 0x23, 0x17, 0xe9, 0xd8, 0x04, 0xfa, 0xe4, 0xbd, 0x0c,
    0x0f, 0xe8, 0x16, 0xdc, 0xff, 0xbb, 0xe3, 0xd1, 0x0f, 0xc0, 0xcc, 0xb4, 0xef,
    0xe6, 0x08, 0xf2, 0x15, 0x1d, 0x14, 0xa7, 0x7f, 0xff, 0x06, 0xec, 0xf4, 0x04,
    0xd9, 0xe9, 0xe9, 0xc0, 0xf9, 0x05, 0x32, 0x06, 0x57, 0xf5, 0xc3, 0xe4, 0xb9,
    0x24, 0xf4, 0x17, 0xe9, 0x48, 0x2b, 0xed, 0xeb, 0xd9, 0xe8, 0x28, 0x59, 0xc9,
    0x59, 0xa6, 0xda, 0xd4, 0xe1, 0x1a, 0xee, 0x19, 0x23, 0xf1, 0xf5, 0xfb, 0xef,
    0x05, 0x15, 0xc5, 0xdd, 0x06, 0xfb, 0xca, 0x23, 0xae, 0xf9, 0xf3, 0x08, 0x05,
    0x1b, 0xf5, 0xe4, 0x02, 0xc1, 0x96, 0x68, 0xe5, 0x31, 0xe9, 0x1f, 0xae, 0x21,
    0x2e, 0xd4, 0xee, 0xe5, 0xe7, 0x09, 0x10, 0x5b, 0xde, 0x39, 0xc9, 0x22, 0xdc,
    0xde, 0xe1, 0x25, 0x0f, 0xd2, 0x22, 0x25, 0x05, 0xb2, 0x12, 0x64, 0xbd, 0x34,
    0xa9, 0xda, 0xd3, 0x09, 0xda, 0x12, 0xea, 0x23, 0x2c, 0xfd, 0x36, 0xbf, 0x14,
    0xd3, 0xd0, 0x40, 0x9a, 0x21, 0xe8, 0xdf, 0xf0, 0x1a, 0xf3, 0x18, 0x23, 0xe8,
    0xf5, 0x12, 0x3a, 0x04, 0xc8, 0x44, 0xe7, 0x22, 0x0b, 0xee, 0x1d, 0x0d, 0xd3,
    0xd8, 0xd4, 0xd7, 0x25, 0xc5, 0xe4, 0xe2, 0x40, 0xfa, 0x27, 0xec, 0x3d, 0x23,
    0xc0, 0x5b, 0x37, 0x25, 0x3c, 0xf2, 0x0d, 0xe3, 0x4d, 0xf0, 0x29, 0xf4, 0xb9,
    0xff, 0x0b, 0xfd, 0x08, 0x19, 0x16, 0x19, 0x1b, 0x0e, 0x10, 0xbf, 0xf6, 0xe0,
    0x00, 0x1a, 0xb8, 0x2d, 0x3a, 0x22, 0x21, 0xef, 0xcf, 0x15, 0x3a, 0x47, 0x2b,
    0xc8, 0xc6, 0xc4, 0x3c, 0x29, 0xe6, 0x43, 0x5f, 0x0f, 0xf8, 0x26, 0xbf, 0xf8,
    0xf0, 0xee, 0x37, 0xc0, 0xef, 0x2e, 0xed, 0xff, 0xff, 0x00, 0x00, 0x00, 0x09,
    0x10, 0x00, 0x00, 0x00, 0x07, 0x00, 0x00, 0x00, 0x1c, 0x00, 0x00, 0x00, 0x3c,
    0x00, 0x00, 0x00, 0x04, 0x00, 0x00, 0x00, 0x08, 0x00, 0x00, 0x00, 0x04, 0x00,
    0x00, 0x00, 0x04, 0x00, 0x00, 0x00, 0x10, 0x00, 0x00, 0x00, 0x1c, 0x00, 0x00,
    0x00, 0x73, 0x65, 0x71, 0x75, 0x65, 0x6e, 0x74, 0x69, 0x61, 0x6c, 0x5f, 0x39,
    0x36, 0x2f, 0x63, 0x6f, 0x6e, 0x76, 0x32, 0x64, 0x32, 0x2f, 0x43, 0x6f, 0x6e,
    0x76, 0x32, 0x44, 0x00, 0x00, 0x00, 0x00, 0xb0, 0xec, 0xff, 0xff, 0x08, 0x00,
    0x00, 0x00, 0x28, 0x00, 0x00, 0x00, 0x08, 0x00, 0x00, 0x00, 0x63, 0x9f, 0x44,
    0x3b, 0x9c, 0xad, 0x90, 0x3b, 0x59, 0xa4, 0x37, 0x3b, 0x55, 0xb8, 0x67, 0x3b,
    0xe2, 0x1f, 0x35, 0x3b, 0xca, 0xab, 0x16, 0x3b, 0x93, 0x16, 0x3a, 0x3b, 0x1f,
    0x90, 0x30, 0x3b, 0x08, 0x00, 0x00, 0x00, 0x00, 0x00, 0x00, 0x00, 0x00, 0x00,
    0x00, 0x00, 0x00, 0x00, 0x00, 0x00, 0x00, 0x00, 0x00, 0x00, 0x00, 0x00, 0x00,
    0x00, 0x00, 0x00, 0x00, 0x00, 0x00, 0x00, 0x00, 0x00, 0x00, 0x00, 0x00, 0x00,
    0x00, 0x00, 0x00, 0x00, 0x00, 0x00, 0x00, 0x00, 0x00, 0x00, 0x00, 0x00, 0x00,
    0x00, 0x00, 0x00, 0x00, 0x00, 0x00, 0x00, 0x00, 0x00, 0x00, 0x00, 0x00, 0x00,
    0x00, 0x00, 0x00, 0x00, 0x00, 0x00, 0x00, 0x00, 0x00, 0x00, 0x12, 0xee, 0xff,
    0xff, 0x04, 0x00, 0x00, 0x00, 0x40, 0x00, 0x00, 0x00, 0x40, 0x0c, 0x00, 0x00,
    0xc2, 0x08, 0x00, 0x00, 0xb9, 0x10, 0x00, 0x00, 0xfc, 0xfe, 0xff, 0xff, 0x4d,
    0x0b, 0x00, 0x00, 0xde, 0x08, 0x00, 0x00, 0x09, 0xfd, 0xff, 0xff, 0x54, 0x0d,
    0x00, 0x00, 0x61, 0xfc, 0xff, 0xff, 0x9a, 0x05, 0x00, 0x00, 0x5b, 0x03, 0x00,
    0x00, 0x68, 0xf8, 0xff, 0xff, 0xd3, 0xf8, 0xff, 0xff, 0x04, 0x02, 0x00, 0x00,
    0x91, 0x04, 0x00, 0x00, 0x3f, 0x07, 0x00, 0x00, 0x42, 0xee, 0xff, 0xff, 0x00,
    0x00, 0x00, 0x02, 0x10, 0x00, 0x00, 0x00, 0x06, 0x00, 0x00, 0x00, 0x10, 0x00,
    0x00, 0x00, 0x20, 0x00, 0x00, 0x00, 0x01, 0x00, 0x00, 0x00, 0x10, 0x00, 0x00,
    0x00, 0x0c, 0x00, 0x00, 0x00, 0x63, 0x6f, 0x6e, 0x76, 0x32, 0x64, 0x31, 0x2f,
    0x62, 0x69, 0x61, 0x73, 0x00, 0x00, 0x00, 0x00, 0xa8, 0xed, 0xff, 0xff, 0x08,
    0x00, 0x00, 0x00, 0x48, 0x00, 0x00, 0x00, 0x10, 0x00, 0x00, 0x00, 0x9f, 0x7f,
    0x11, 0x38, 0x56, 0x44, 0xc5, 0x37, 0xe4, 0xb4, 0xf4, 0x37, 0x57, 0xf7, 0xd1,
    0x37, 0x33, 0x16, 0x07, 0x38, 0xfa, 0xd6, 0xb9, 0x37, 0x1b, 0x64, 0x42, 0x37,
    0x60, 0x8e, 0xd2, 0x37, 0x59, 0xf9, 0xcb, 0x37, 0xce, 0x23, 0xda, 0x37, 0xb4,
    0xc5, 0xa9, 0x37, 0x6f, 0xac, 0xaa, 0x37, 0xff, 0x59, 0xab, 0x37, 0x32, 0x9d,
    0xdd, 0x37, 0xf5, 0xc9, 0xd1, 0x37, 0x8e, 0x25, 0xe3, 0x37, 0x10, 0x00, 0x00,
    0x00, 0x00, 0x00, 0x00, 0x00, 0x00, 0x00, 0x00, 0x00, 0x00, 0x00, 0x00, 0x00,
    0x00, 0x00, 0x00, 0x00, 0x00, 0x00, 0x00, 0x00, 0x00, 0x00, 0x00, 0x00, 0x00,
    0x00, 0x00, 0x00, 0x00, 0x00, 0x00, 0x00, 0x00, 0x00, 0x00, 0x00, 0x00, 0x00,
    0x00, 0x00, 0x00, 0x00, 0x00, 0x00, 0x00, 0x00, 0x00, 0x00, 0x00, 0x00, 0x00,
    0x00, 0x00, 0x00, 0x00, 0x00, 0x00, 0x00, 0x00, 0x00, 0x00, 0x00, 0x00, 0x00,
    0x00, 0x00, 0x00, 0x00, 0x00, 0x00, 0x00, 0x00, 0x00, 0x00, 0x00, 0x00, 0x00,
    0x00, 0x00, 0x00, 0x00, 0x00, 0x00, 0x00, 0x00, 0x00, 0x00, 0x00, 0x00, 0x00,
    0x00, 0x00, 0x00, 0x00, 0x00, 0x00, 0x00, 0x00, 0x00, 0x00, 0x00, 0x00, 0x00,
    0x00, 0x00, 0x00, 0x00, 0x00, 0x00, 0x00, 0x00, 0x00, 0x00, 0x00, 0x00, 0x00,
    0x00, 0x00, 0x00, 0x00, 0x00, 0x00, 0x00, 0x00, 0x00, 0x00, 0x00, 0x00, 0x66,
    0xef, 0xff, 0xff, 0x04, 0x00, 0x00, 0x00, 0x00, 0x08, 0x00, 0x00, 0xe3, 0xdf,
    0x23, 0xf7, 0x06, 0x10, 0x02, 0x1c, 0xda, 0x27, 0x21, 0x05, 0xee, 0x01, 0xc6,
    0x06, 0xe4, 0x19, 0x18, 0xf9, 0xe3, 0xc3, 0x09, 0x32, 0x32, 0xd7, 0xe9, 0xfd,
    0xea, 0x08, 0x07, 0x22, 0xb7, 0x0b, 0x7f, 0xca, 0xd3, 0xb7, 0xf1, 0x04, 0x0a,
    0xfa, 0x1b, 0x36, 0xd1, 0x49, 0xff, 0xf3, 0x05, 0x0e, 0x30, 0x96, 0xc0, 0xed,
    0xee, 0x22, 0x15, 0x16, 0xcc, 0x19, 0xf0, 0xc7, 0xf0, 0x27, 0x1d, 0x31, 0x0d,
    0xf2, 0xf9, 0x49, 0x00, 0xc1, 0xf8, 0x25, 0x18, 0x2d, 0x00, 0xd0, 0x02, 0x16,
    0xe4, 0xbf, 0xee, 0xef, 0x15, 0x1c, 0xf4, 0x02, 0x2d, 0xf3, 0x17, 0xf5, 0xfd,
    0x46, 0x13, 0xff, 0xfb, 0xde, 0x30, 0x08, 0x1e, 0x30, 0x2a, 0xe2, 0xd7, 0x50,
    0xfc, 0xf5, 0xd1, 0xfb, 0xf7, 0x1b, 0xc1, 0xed, 0x01, 0xce, 0xf3, 0xdb, 0xf9,
    0xd9, 0x26, 0xf8, 0xfb, 0x02, 0xd9, 0xfd, 0xf1, 0xda, 0x36, 0x17, 0xeb, 0x0a,
    0x0f, 0x45, 0xa5, 0xc5, 0xdf, 0xc6, 0x3a, 0x32, 0x04, 0xd9, 0x1f, 0xfa, 0x33,
    0x47, 0x0a, 0xbd, 0x05, 0xe8, 0xf2, 0x35, 0x08, 0xd1, 0x0d, 0xe0, 0xc4, 0x39,
    0x21, 0x10, 0x49, 0xe2, 0xda, 0xa1, 0x0e, 0x45, 0x97, 0x1f, 0x3c, 0xa5, 0xdc,
    0x02, 0x05, 0x09, 0x4b, 0xeb, 0x3d, 0x5c, 0xf8, 0xa1, 0x19, 0xe3, 0x21, 0x2c,
    0x25, 0xef, 0x03, 0x02, 0xd9, 0x15, 0xf9, 0xfe, 0xc1, 0xd2, 0x27, 0xdc, 0xf3,
    0xfc, 0xf9, 0x7f, 0x1f, 0xcb, 0x36, 0x14, 0x15, 0xfb, 0x03, 0x00, 0x19, 0x43,
    0x07, 0xe0, 0xe3, 0x0a, 0x20, 0x08, 0xe2, 0xe3, 0x21, 0x2d, 0xcb, 0xf1, 0x39,
    0xef, 0xb8, 0x3b, 0xf2, 0xde, 0x31, 0xd1, 0x2a, 0x4c, 0xee, 0x04, 0x24, 0x16,
    0x31, 0xfd, 0xd4, 0xd1, 0x5a, 0x19, 0x2a, 0x0e, 0xf1, 0xfc, 0x2d, 0xf4, 0x05,
    0x2b, 0xf2, 0x4e, 0xf0, 0xe1, 0xd6, 0x2d, 0xd5, 0xa1, 0xbe, 0x7f, 0xd5, 0x0f,
    0x1e, 0xf3, 0xf5, 0x5f, 0xdd, 0xfd, 0x1f, 0x0d, 0x8e, 0xe8, 0x13, 0xec, 0xe0,
    0x65, 0x01, 0x18, 0x24, 0xf9, 0x0e, 0x1d, 0xea, 0x2a, 0x21, 0xf9, 0xcf, 0xfc,
    0xff, 0x27, 0xef, 0xfc, 0x15, 0xf1, 0x2c, 0x9a, 0xe7, 0xcf, 0x01, 0xf4, 0xf9,
    0xda, 0x8b, 0xdf, 0x88, 0xca, 0x39, 0x16, 0xdc, 0x24, 0x16, 0xfa, 0x2a, 0x59,
    0xf4, 0xf8, 0x57, 0xcd, 0x0e, 0x2d, 0xdf, 0xe5, 0xc1, 0x06, 0x14, 0x1e, 0xf8,
    0x29, 0xda, 0xe4, 0x2a, 0x0b, 0x21, 0xed, 0xe5, 0xc4, 0x12, 0xf6, 0xf3, 0x1c,
    0xd4, 0xe8, 0xe8, 0xbe, 0xed, 0xf1, 0xed, 0xe0, 0xee, 0xed, 0x0f, 0x15, 0xfd,
    0x10, 0x0e, 0xab, 0x0e, 0x17, 0xfe, 0x9e, 0x0b, 0xb1, 0xff, 0x06, 0xde, 0xdc,
    0x96, 0x18, 0xf3, 0xd1, 0x34, 0xf2, 0xe1, 0xe7, 0xde, 0xd6, 0x1c, 0x31, 0x17,
    0x0f, 0x01, 0x1e, 0x10, 0xfe, 0xcd, 0x42, 0x30, 0x22, 0xbe, 0xdc, 0x17, 0x01,
    0xe1, 0x2a, 0x30, 0x42, 0x08, 0x3c, 0xf6, 0xed, 0xd2, 0x11, 0x13, 0xd0, 0x0f,
    0x23, 0xf3, 0x2b, 0x0b, 0xf7, 0xcd, 0xea, 0x30, 0x00, 0xe8, 0xff, 0xe9, 0x15,
    0x0e, 0xf6, 0xd3, 0x03, 0xfb, 0x42, 0x25, 0x01, 0x39, 0x18, 0xe6, 0x4f, 0xee,
    0xc2, 0x38, 0x7f, 0x26, 0x19, 0x07, 0x1e, 0xcf, 0x40, 0x16, 0x20, 0x15, 0x27,
    0xca, 0x2f, 0xe2, 0x3e, 0xea, 0xff, 0x73, 0xf5, 0xdd, 0xfa, 0x07, 0xfb, 0xc4,
    0xff, 0x05, 0x10, 0x0c, 0x56, 0x98, 0xdc, 0xed, 0x23, 0xbe, 0xbf, 0xbf, 0x0c,
    0xb6, 0xd6, 0xff, 0x08, 0x1b, 0xc8, 0x27, 0xc5, 0x10, 0xfe, 0xf5, 0xe3, 0x68,
    0x28, 0xd2, 0x12, 0xde, 0x4b, 0x14, 0x2e, 0xf2, 0xc9, 0xea, 0x5b, 0xed, 0xcf,
    0x02, 0x05, 0xf7, 0xe1, 0x28, 0x1d, 0xdc, 0xf2, 0xdc, 0xe7, 0xe1, 0x12, 0xfe,
    0xfc, 0xbd, 0x0c, 0xe3, 0xf1, 0x2d, 0x0d, 0xdb, 0x08, 0x27, 0x25, 0xfd, 0xe9,
    0x0e, 0xf7, 0x2b, 0x28, 0xf2, 0x1c, 0xfe, 0x1c, 0x15, 0x29, 0xf8, 0x05, 0xd6,
    0x05, 0x17, 0xed, 0xef, 0x09, 0xeb, 0xe1, 0x0a, 0xeb, 0x31, 0xf7, 0x84, 0x06,
    0x14, 0x10, 0xc5, 0xe7, 0xe8, 0xbf, 0xef, 0x31, 0xe9, 0xcd, 0xd5, 0xf7, 0xcd,
    0xc7, 0xe4, 0x4e, 0x2e, 0xce, 0x02, 0x16, 0x18, 0x08, 0x42, 0xfb, 0x22, 0x10,
    0x21, 0xe7, 0x28, 0x07, 0x9f, 0xda, 0xe9, 0x14, 0xb5, 0xd0, 0xfb, 0xf2, 0xf5,
    0xdb, 0x14, 0xf0, 0x0b, 0x07, 0x12, 0xaf, 0x2b, 0x06, 0xfa, 0x02, 0x15, 0xe7,
    0x2e, 0x2d, 0xf2, 0xeb, 0xf9, 0x0d, 0x26, 0xff, 0x23, 0x13, 0x81, 0xcf, 0x18,
    0xf6, 0xac, 0xdf, 0x0a, 0xef, 0x15, 0x07, 0x09, 0x99, 0x0b, 0x15, 0xf8, 0xb2,
    0x22, 0xca, 0xeb, 0x19, 0x26, 0xe3, 0x31, 0x46, 0x0f, 0xd2, 0x36, 0x2d, 0x30,
    0xeb, 0x34, 0x0e, 0x28, 0x59, 0x46, 0x0e, 0x18, 0xee, 0x19, 0xbf, 0xea, 0x29,
    0xf0, 0x1f, 0x1c, 0x3b, 0x19, 0x01, 0x09, 0x4f, 0x05, 0x49, 0x03, 0x07, 0xcd,
    0x06, 0x35, 0x22, 0xea, 0xfb, 0xee, 0xdf, 0xe5, 0x0d, 0xf8, 0xd5, 0x29, 0x3e,
    0x30, 0xff, 0xc5, 0xa8, 0xcb, 0xf5, 0xe6, 0xce, 0xd6, 0x0f, 0x68, 0x13, 0xf8,
    0xf4, 0x13, 0x47, 0xe9, 0x3e, 0x04, 0xd2, 0x0f, 0x1e, 0x19, 0x04, 0xcc, 0xfc,
    0x26, 0xc2, 0x58, 0xd3, 0x2f, 0x1e, 0xdc, 0x31, 0xc0, 0xd1, 0x38, 0xe1, 0xce,
    0xec, 0x07, 0xef, 0x00, 0xfd, 0x30, 0xd7, 0x05, 0x01, 0x06, 0x56, 0xe4, 0xbc,
    0x3c, 0xfc, 0xde, 0xff, 0xe4, 0xd2, 0x23, 0xcd, 0x7f, 0xe0, 0x1a, 0xfb, 0xd4,
    0x30, 0x1d, 0xdb, 0x26, 0xd1, 0xf2, 0x3e, 0x60, 0x28, 0x44, 0x35, 0x1b, 0xec,
    0x27, 0xf7, 0x08, 0x7d, 0x1c, 0xbf, 0x22, 0xc8, 0xe3, 0xda, 0x30, 0xfc, 0x2f,
    0xbc, 0x5a, 0x02, 0x36, 0xdd, 0x08, 0x03, 0x88, 0x1a, 0xbe, 0x99, 0x59, 0x8d,
    0x41, 0x0e, 0x2c, 0xb4, 0xa8, 0xf4, 0xd0, 0xad, 0x8e, 0x4e, 0xd1, 0x53, 0xa2,
    0x45, 0x58, 0x2c, 0xe3, 0xae, 0xc1, 0x3f, 0xe4, 0x49, 0x2e, 0xaa, 0x81, 0x08,
    0x4d, 0x4a, 0xd1, 0x97, 0xb6, 0xd0, 0x3c, 0xff, 0xfc, 0x10, 0xdd, 0x10, 0x39,
    0x86, 0xd5, 0xf3, 0x5c, 0x8f, 0x0c, 0xd6, 0xf0, 0x5c, 0xef, 0xe0, 0xfd, 0x31,
    0xfe, 0xce, 0x0e, 0x41, 0x95, 0xde, 0xfb, 0x9f, 0xc2, 0xb0, 0x35, 0x3a, 0x1f,
    0x22, 0xd0, 0x1e, 0x38, 0x39, 0x30, 0x9f, 0xd8, 0xe4, 0x5c, 0x38, 0xca, 0xa2,
    0xc3, 0x94, 0xc7, 0x42, 0x27, 0xe7, 0xa9, 0x99, 0x17, 0x9a, 0x44, 0x43, 0xfb,
    0xda, 0x23, 0x06, 0x8a, 0x2b, 0x91, 0x8c, 0x1d, 0x10, 0xa0, 0x48, 0x2d, 0xcc,
    0x41, 0x07, 0xf6, 0x97, 0x2c, 0xc2, 0xed, 0x33, 0xf6, 0x9a, 0xe1, 0xfc, 0x46,
    0xd7, 0xce, 0x14, 0x99, 0x04, 0xeb, 0xf2, 0xe3, 0xff, 0xb8, 0x52, 0xfc, 0xd7,
    0xcc, 0x2b, 0xcb, 0xa1, 0xbb, 0xed, 0xdb, 0xdd, 0x26, 0xc2, 0x19, 0xf6, 0xfc,
    0xcf, 0xf4, 0x03, 0xe4, 0xed, 0x32, 0xb6, 0x11, 0x2b, 0x8d, 0x5d, 0xf4, 0x1d,
    0x26, 0xc8, 0xcf, 0xfa, 0xde, 0x0e, 0xe2, 0x2d, 0xd5, 0xb0, 0xdc, 0xb4, 0x22,
    0x99, 0xf2, 0x02, 0xe4, 0xcd, 0xea, 0x02, 0xe4, 0xc8, 0x23, 0x1e, 0xe3, 0x0c,
    0xf8, 0x3d, 0xdd, 0x2a, 0x34, 0x38, 0xf4, 0x04, 0xdf, 0xc5, 0x05, 0xe1, 0xc6,
    0xd5, 0x0b, 0xcc, 0x33, 0x92, 0x2c, 0x36, 0x20, 0x17, 0x3c, 0xd2, 0x21, 0x36,
    0x2d, 0xdb, 0x22, 0xe9, 0xb2, 0xe4, 0x34, 0x3a, 0xf9, 0x2c, 0x2c, 0x7f, 0x3d,
    0x16, 0x28, 0xac, 0x27, 0x1c, 0xe0, 0x10, 0x47, 0x8e, 0xe9, 0xc0, 0x11, 0x26,
    0x60, 0x10, 0x4d, 0xbb, 0x0c, 0xfa, 0x43, 0x03, 0xdd, 0x45, 0x0c, 0x1c, 0x46,
    0x39, 0x31, 0xdf, 0x0e, 0x16, 0xe1, 0xea, 0x19, 0xc2, 0x0b, 0xe1, 0x14, 0xd0,
    0x33, 0x25, 0x33, 0x3b, 0xd7, 0x1c, 0xcf, 0xd9, 0x16, 0xf2, 0xff, 0x1e, 0x10,
    0x2b, 0xe8, 0xf0, 0xf8, 0xd2, 0x12, 0x22, 0xf9, 0x37, 0x14, 0xd3, 0x2a, 0x0e,
    0xce, 0xc3, 0xe6, 0xda, 0x3a, 0x3a, 0x08, 0x0b, 0x12, 0xfb, 0xe0, 0x64, 0xd6,
    0xc5, 0x02, 0x0e, 0xda, 0x01, 0x17, 0xed, 0x12, 0x21, 0x31, 0x07, 0x0e, 0x3c,
    0x02, 0xb9, 0xcb, 0x31, 0xe8, 0x3c, 0x30, 0x2b, 0x26, 0x27, 0xf0, 0xc7, 0xff,
    0x31, 0xf7, 0x1e, 0xed, 0x6a, 0xb2, 0xf3, 0x0c, 0x2a, 0xf8, 0x04, 0x23, 0x1b,
    0x30, 0x16, 0x1d, 0xec, 0xf7, 0x14, 0x1e, 0xe9, 0xbb, 0x30, 0x26, 0x2d, 0xe3,
    0x1f, 0x18, 0xdf, 0xe5, 0x23, 0xf8, 0xe3, 0xe8, 0x29, 0x2f, 0x72, 0xe1, 0x81,
    0xd4, 0x20, 0xd5, 0x2b, 0xe9, 0x2d, 0x24, 0x20, 0x34, 0x0d, 0x1e, 0x1d, 0x42,
    0x54, 0x02, 0x3e, 0x35, 0x48, 0x0a, 0x41, 0x40, 0x41, 0xcd, 0x2a, 0x04, 0xf5,
    0xf0, 0xe2, 0xf8, 0x6c, 0xdc, 0xeb, 0x18, 0x32, 0xc0, 0x38, 0x09, 0x02, 0x2a,
    0xe6, 0x48, 0xc8, 0xfb, 0x3f, 0x05, 0x58, 0xc2, 0x0a, 0xe9, 0x5e, 0xf7, 0x2b,
    0x68, 0xd8, 0xea, 0x10, 0xc5, 0xc0, 0xf6, 0xe7, 0x0a, 0x1d, 0xd4, 0x81, 0x32,
    0x08, 0x89, 0x11, 0xed, 0xd2, 0xda, 0x33, 0x4f, 0x4e, 0x2a, 0xe9, 0x34, 0xf0,
    0xf5, 0x77, 0x1c, 0x09, 0xf5, 0x42, 0xf5, 0x3c, 0x10, 0x05, 0xf4, 0xc5, 0xee,
    0xc6, 0x1a, 0x35, 0xd4, 0xb2, 0x1d, 0x11, 0x1d, 0x0e, 0x35, 0x16, 0xe9, 0xea,
    0x1d, 0xec, 0x0a, 0x0a, 0xfa, 0x22, 0xdb, 0x6d, 0x30, 0x37, 0xeb, 0x3f, 0x3a,
    0xff, 0xdc, 0xe3, 0xe6, 0xc6, 0x01, 0xd5, 0xf6, 0xef, 0x10, 0xb5, 0x09, 0xe5,
    0x02, 0x36, 0xd0, 0xd2, 0x17, 0x43, 0xc9, 0xd5, 0x38, 0x23, 0x04, 0xd7, 0xf0,
    0xfe, 0x2a, 0x1f, 0xf9, 0xdd, 0xe3, 0x3e, 0x1b, 0xae, 0x37, 0x97, 0x3a, 0x1e,
    0xde, 0xb4, 0xe2, 0xe0, 0xc7, 0x06, 0xe9, 0x4a, 0x37, 0xdc, 0xd9, 0x62, 0xf7,
    0xdc, 0x3c, 0x0d, 0x45, 0xc3, 0x25, 0xb9, 0xd2, 0xb1, 0xc9, 0xbd, 0xcf, 0xd6,
    0x17, 0x1d, 0xe6, 0xbb, 0x03, 0x10, 0x57, 0x30, 0x14, 0x08, 0x47, 0x0b, 0xd2,
    0x21, 0x0f, 0x1f, 0xcd, 0x00, 0xde, 0x19, 0xfd, 0xf6, 0x46, 0xc3, 0xe6, 0xfd,
    0x36, 0x1d, 0x0b, 0x29, 0xd0, 0xf0, 0xcb, 0xbd, 0x0e, 0x26, 0x3d, 0xba, 0x0b,
    0xf3, 0xdc, 0xdd, 0x05, 0x1f, 0xed, 0x01, 0x36, 0x2b, 0xbc, 0xd2, 0x47, 0xd0,
    0x3c, 0xd9, 0x5e, 0xee, 0x1f, 0x81, 0x35, 0x2f, 0x1c, 0x38, 0xf4, 0x48, 0xdf,
    0x0f, 0xd2, 0xfb, 0x2f, 0xd9, 0x55, 0x21, 0xf1, 0xd3, 0x56, 0x48, 0xf9, 0x28,
    0xd6, 0x28, 0x17, 0x02, 0xfe, 0x2b, 0xf3, 0xd0, 0x4a, 0xc9, 0x32, 0x3b, 0xf7,
    0xe7, 0xfd, 0x10, 0xb1, 0x3d, 0x81, 0x97, 0x10, 0xed, 0x10, 0xcf, 0x3d, 0xf1,
    0xcb, 0xf4, 0x45, 0xf0, 0x0a, 0xff, 0x10, 0x08, 0xf9, 0x4e, 0x44, 0x1f, 0xf9,
    0xf5, 0x50, 0xed, 0xeb, 0x0c, 0xfa, 0x2f, 0x29, 0xed, 0xed, 0x39, 0xcb, 0xe8,
    0x0d, 0x0a, 0x4a, 0x51, 0x26, 0x34, 0xb5, 0xf2, 0x69, 0xe0, 0x85, 0x6d, 0xc8,
    0x2d, 0xe2, 0x03, 0x35, 0x20, 0xff, 0x3e, 0x0b, 0xa8, 0x20, 0x47, 0x3f, 0xee,
    0x1d, 0x0c, 0xed, 0x01, 0x90, 0xec, 0xd3, 0xf4, 0x1b, 0x98, 0x3e, 0x41, 0xe3,
    0xc8, 0x13, 0x41, 0xe8, 0xf2, 0xc2, 0x29, 0x20, 0x3b, 0x48, 0x3d, 0xe4, 0x4b,
    0x62, 0x05, 0xfc, 0xdd, 0x4b, 0x4d, 0x33, 0x25, 0x01, 0x53, 0xc7, 0x0e, 0xc3,
    0xcd, 0xc7, 0xb6, 0x37, 0x6e, 0xa5, 0xeb, 0x4c, 0x12, 0x99, 0x3f, 0xe5, 0xf2,
    0x05, 0xfc, 0xae, 0x60, 0xff, 0x21, 0x03, 0xd7, 0x4a, 0xb0, 0xbf, 0xc6, 0x28,
    0x05, 0xa3, 0xf4, 0x55, 0xd1, 0xfa, 0x5e, 0x1d, 0x5a, 0x0a, 0x06, 0xae, 0xe3,
    0xf0, 0x34, 0x32, 0xd1, 0x3a, 0x21, 0xbe, 0xff, 0x53, 0x27, 0x38, 0x3c, 0xc8,
    0x54, 0xdc, 0x96, 0x2d, 0x07, 0xff, 0x2c, 0x45, 0xe7, 0x2f, 0x71, 0x1b, 0xd9,
    0xd1, 0xeb, 0x34, 0x08, 0xd8, 0xfe, 0x27, 0xf0, 0xc3, 0xea, 0x03, 0x23, 0x1e,
    0xc0, 0x13, 0x57, 0x13, 0xda, 0x27, 0x32, 0x09, 0x81, 0xcb, 0x51, 0xef, 0xd3,
    0xb3, 0x07, 0x31, 0xe4, 0xad, 0x08, 0x1b, 0x2d, 0xd3, 0x32, 0xfa, 0xd9, 0x48,
    0x25, 0x9d, 0xdf, 0xce, 0xf2, 0xf3, 0xe5, 0xf1, 0xd0, 0x1d, 0x30, 0xc6, 0x4a,
    0xf9, 0xa6, 0x09, 0x13, 0xe3, 0x39, 0xf3, 0x18, 0xea, 0x58, 0xe5, 0x03, 0xfc,
    0x8a, 0xea, 0x03, 0x3d, 0xa0, 0x09, 0xe0, 0x13, 0xf9, 0x20, 0xdc, 0x40, 0x46,
    0xcc, 0xd3, 0x0a, 0x0d, 0x09, 0xc3, 0xea, 0x18, 0x2b, 0x33, 0xe2, 0xd4, 0xea,
    0xf6, 0xad, 0xbc, 0x1c, 0xfd, 0xfb, 0xf1, 0x37, 0x1b, 0x2a, 0x0b, 0xf9, 0xc9,
    0x3d, 0x2b, 0xee, 0xfe, 0x0e, 0x4b, 0x81, 0x03, 0xfd, 0x49, 0x19, 0xfd, 0x31,
    0x0d, 0x27, 0xd8, 0xfd, 0x00, 0x09, 0x2b, 0xa8, 0xdd, 0xee, 0x08, 0x2c, 0x35,
    0x2d, 0xf7, 0x00, 0x30, 0x38, 0xf8, 0xd0, 0x26, 0x2f, 0xe4, 0xd4, 0xf8, 0xd0,
    0xdc, 0xea, 0xd0, 0x33, 0xd7, 0x2b, 0xdf, 0x13, 0xd3, 0x1f, 0xba, 0xed, 0x45,
    0xca, 0xf1, 0x10, 0xe5, 0x2b, 0x10, 0xf4, 0xf1, 0x04, 0x15, 0x26, 0x36, 0x47,
    0xf5, 0xdb, 0x38, 0x0d, 0x0d, 0xd4, 0x08, 0x37, 0x2a, 0x5d, 0xa6, 0x1e, 0xd2,
    0x16, 0x22, 0x3d, 0xd0, 0xe9, 0x36, 0xe8, 0x17, 0xf1, 0x2d, 0x19, 0x1e, 0x1e,
    0x05, 0xc3, 0xf9, 0x30, 0x12, 0xef, 0xf4, 0x40, 0x1e, 0x0d, 0x0b, 0x29, 0x03,
    0xf8, 0x21, 0x0d, 0x32, 0x00, 0x02, 0xef, 0x09, 0x37, 0x52, 0x2e, 0xe7, 0x00,
    0x19, 0xdf, 0x4f, 0xe9, 0x24, 0xfd, 0xe2, 0x32, 0xec, 0x06, 0x3c, 0x2a, 0xe7,
    0x22, 0x00, 0xf5, 0xf6, 0xda, 0x11, 0xf4, 0xdf, 0x4b, 0x01, 0xf5, 0x15, 0xd7,
    0xf1, 0xfa, 0x37, 0x38, 0xc5, 0x7a, 0x48, 0xf0, 0x4e, 0x2b, 0x7c, 0xdf, 0xd9,
    0x06, 0x20, 0xe9, 0x3b, 0xc2, 0x03, 0x17, 0xdf, 0xdf, 0x08, 0x27, 0x0f, 0xec,
    0xec, 0xb1, 0x4e, 0xb5, 0x27, 0xfb, 0x1d, 0xd0, 0x7f, 0x9a, 0x06, 0x1c, 0x4f,
    0xc4, 0xfb, 0xc0, 0x1c, 0xe9, 0x1e, 0x16, 0xc9, 0x1f, 0x2f, 0x2d, 0xd9, 0xd9,
    0x22, 0x01, 0xfb, 0xc7, 0xcc, 0xe2, 0xb8, 0xa4, 0x04, 0xb3, 0xd7, 0xff, 0xfe,
    0xd9, 0xcc, 0x9a, 0xfb, 0x15, 0xef, 0x0f, 0xef, 0xdf, 0xe5, 0xd2, 0xb8, 0x1d,
    0xf9, 0x24, 0xed, 0xea, 0xc1, 0x0b, 0xd1, 0xef, 0xd5, 0xae, 0x36, 0x07, 0xeb,
    0x02, 0xa0, 0x21, 0x7f, 0xf5, 0x10, 0xe1, 0xef, 0xfe, 0x07, 0x97, 0xef, 0x2b,
    0xf9, 0x02, 0xfd, 0xea, 0xe3, 0xf2, 0x16, 0x01, 0xed, 0x1a, 0x17, 0x24, 0x23,
    0xe7, 0x13, 0xaf, 0x13, 0xc8, 0x32, 0x17, 0xe2, 0xda, 0x23, 0xdd, 0xe0, 0xd6,
    0x13, 0xaa, 0xcd, 0xe3, 0xe8, 0xf3, 0xcc, 0x18, 0x38, 0x02, 0xf7, 0xec, 0xcf,
    0x29, 0xf1, 0xc8, 0x0a, 0xdf, 0xf5, 0xe8, 0x37, 0xf5, 0x49, 0x1c, 0x1b, 0xf5,
    0xc3, 0x28, 0x5b, 0x17, 0xfa, 0x34, 0xf9, 0xd7, 0x00, 0xcc, 0xf4, 0xfb, 0x1b,
    0x41, 0x23, 0xfc, 0xee, 0x00, 0xf0, 0xe0, 0xeb, 0xe2, 0x16, 0x2e, 0x2b, 0x2a,
    0x0b, 0xb2, 0x31, 0x17, 0xff, 0x18, 0xd4, 0xd5, 0x0a, 0x37, 0x16, 0xdc, 0x10,
    0xca, 0x0e, 0xb3, 0xc8, 0xff, 0x33, 0xe6, 0x29, 0x3a, 0x1f, 0xeb, 0xfd, 0x1f,
    0xf6, 0xdf, 0x30, 0xec, 0x2c, 0x56, 0xf7, 0xff, 0xff, 0x00, 0x00, 0x00, 0x09,
    0x10, 0x00, 0x00, 0x00, 0x05, 0x00, 0x00, 0x00, 0x1c, 0x00, 0x00, 0x00, 0x3c,
    0x00, 0x00, 0x00, 0x04, 0x00, 0x00, 0x00, 0x10, 0x00, 0x00, 0x00, 0x02, 0x00,
    0x00, 0x00, 0x02, 0x00, 0x00, 0x00, 0x20, 0x00, 0x00, 0x00, 0x1c, 0x00, 0x00,
    0x00, 0x73, 0x65, 0x71, 0x75, 0x65, 0x6e, 0x74, 0x69, 0x61, 0x6c, 0x5f, 0x39,
    0x36, 0x2f, 0x63, 0x6f, 0x6e, 0x76, 0x32, 0x64, 0x31, 0x2f, 0x43, 0x6f, 0x6e,
    0x76, 0x32, 0x44, 0x00, 0x00, 0x00, 0x00, 0xd8, 0xf6, 0xff, 0xff, 0x08, 0x00,
    0x00, 0x00, 0x48, 0x00, 0x00, 0x00, 0x10, 0x00, 0x00, 0x00, 0x33, 0x5a, 0x9d,
    0x3b, 0x9f, 0x56, 0x55, 0x3b, 0x4c, 0x52, 0x84, 0x3b, 0x7c, 0x12, 0x63, 0x3b,
    0xa0, 0x17, 0x92, 0x3b, 0xee, 0xfa, 0x48, 0x3b, 0x68, 0x3a, 0xd2, 0x3a, 0xd3,
    0xb5, 0x63, 0x3b, 0x84, 0x97, 0x5c, 0x3b, 0x6c, 0xe9, 0x6b, 0x3b, 0x8c, 0x9a,
    0x37, 0x3b, 0x13, 0x94, 0x38, 0x3b, 0xc7, 0x4f, 0x39, 0x3b, 0x46, 0xab, 0x6f,
    0x3b, 0x67, 0xe1, 0x62, 0x3b, 0x06, 0xa7, 0x75, 0x3b, 0x10, 0x00, 0x00, 0x00,
    0x00, 0x00, 0x00, 0x00, 0x00, 0x00, 0x00, 0x00, 0x00, 0x00, 0x00, 0x00, 0x00,
    0x00, 0x00, 0x00, 0x00, 0x00, 0x00, 0x00, 0x00, 0x00, 0x00, 0x00, 0x00, 0x00,
    0x00, 0x00, 0x00, 0x00, 0x00, 0x00, 0x00, 0x00, 0x00, 0x00, 0x00, 0x00, 0x00,
    0x00, 0x00, 0x00, 0x00, 0x00, 0x00, 0x00, 0x00, 0x00, 0x00, 0x00, 0x00, 0x00,
    0x00, 0x00, 0x00, 0x00, 0x00, 0x00, 0x00, 0x00, 0x00, 0x00, 0x00, 0x00, 0x00,
    0x00, 0x00, 0x00, 0x00, 0x00, 0x00, 0x00, 0x00, 0x00, 0x00, 0x00, 0x00, 0x00,
    0x00, 0x00, 0x00, 0x00, 0x00, 0x00, 0x00, 0x00, 0x00, 0x00, 0x00, 0x00, 0x00,
    0x00, 0x00, 0x00, 0x00, 0x00, 0x00, 0x00, 0x00, 0x00, 0x00, 0x00, 0x00, 0x00,
    0x00, 0x00, 0x00, 0x00, 0x00, 0x00, 0x00, 0x00, 0x00, 0x00, 0x00, 0x00, 0x00,
    0x00, 0x00, 0x00, 0x00, 0x00, 0x00, 0x00, 0x00, 0x00, 0x00, 0x00, 0x00, 0x00,
    0x00, 0x00, 0x9a, 0xf8, 0xff, 0xff, 0x04, 0x00, 0x00, 0x00, 0x80, 0x00, 0x00,
    0x00, 0x02, 0xfd, 0xff, 0xff, 0xe5, 0xff, 0xff, 0xff, 0xd2, 0x0c, 0x00, 0x00,
    0x22, 0xde, 0xff, 0xff, 0xb7, 0x05, 0x00, 0x00, 0x65, 0x15, 0x00, 0x00, 0x51,
    0xfc, 0xff, 0xff, 0x32, 0x04, 0x00, 0x00, 0x8e, 0xf3, 0xff, 0xff, 0x9a, 0x10,
    0x00, 0x00, 0x4d, 0xfc, 0xff, 0xff, 0x5b, 0x03, 0x00, 0x00, 0xef, 0xf4, 0xff,
    0xff, 0x02, 0x08, 0x00, 0x00, 0x7a, 0xfe, 0xff, 0xff, 0x53, 0xf2, 0xff, 0xff,
    0x1c, 0xfe, 0xff, 0xff, 0xcc, 0xfa, 0xff, 0xff, 0xb7, 0x13, 0x00, 0x00, 0x09,
    0xfc, 0xff, 0xff, 0x45, 0xfd, 0xff, 0xff, 0x26, 0xff, 0xff, 0xff, 0x3f, 0xf4,
    0xff, 0xff, 0xf7, 0xfd, 0xff, 0xff, 0xb8, 0x31, 0x00, 0x00, 0xe7, 0xfc, 0xff,
    0xff, 0x3d, 0x01, 0x00, 0x00, 0xdf, 0x09, 0x00, 0x00, 0xf4, 0xfe, 0xff, 0xff,
    0xf2, 0xff, 0xff, 0xff, 0x8d, 0x0c, 0x00, 0x00, 0x2f, 0xf4, 0xff, 0xff, 0x0a,
    0xf9, 0xff, 0xff, 0x00, 0x00, 0x00, 0x02, 0x10, 0x00, 0x00, 0x00, 0x04, 0x00,
    0x00, 0x00, 0x10, 0x00, 0x00, 0x00, 0x20, 0x00, 0x00, 0x00, 0x01, 0x00, 0x00,
    0x00, 0x20, 0x00, 0x00, 0x00, 0x0c, 0x00, 0x00, 0x00, 0x63, 0x6f, 0x6e, 0x76,
    0x32, 0x64, 0x30, 0x2f, 0x62, 0x69, 0x61, 0x73, 0x00, 0x00, 0x00, 0x00, 0x70,
    0xf8, 0xff, 0xff, 0x08, 0x00, 0x00, 0x00, 0x88, 0x00, 0x00, 0x00, 0x20, 0x00,
    0x00, 0x00, 0x18, 0x10, 0xe9, 0x36, 0x46, 0x60, 0x09, 0x37, 0xda, 0xe4, 0x67,
    0x37, 0x21, 0xc9, 0x1e, 0x37, 0x04, 0xa8, 0xca, 0x36, 0x11, 0xb1, 0x1d, 0x37,
    0xa5, 0xf5, 0x45, 0x37, 0xa8, 0xf9, 0x2e, 0x37, 0x81, 0x0e, 0xb2, 0x36, 0xab,
    0x7b, 0x83, 0x37, 0x95, 0xa8, 0xc2, 0x36, 0xe1, 0x62, 0xf9, 0x36, 0x6b, 0x63,
    0xaa, 0x36, 0xb3, 0x6e, 0x30, 0x37, 0x11, 0xc8, 0x09, 0x37, 0x1d, 0x12, 0xe4,
    0x36, 0x07, 0xec, 0x47, 0x37, 0xdc, 0x68, 0x32, 0x37, 0x51, 0x03, 0xde, 0x36,
    0x73, 0x27, 0x2f, 0x37, 0x22, 0x12, 0xa1, 0x36, 0x47, 0xff, 0x3b, 0x37, 0xa1,
    0x37, 0xab, 0x36, 0xa4, 0x44, 0x1b, 0x37, 0x28, 0x88, 0x0c, 0x37, 0x07, 0x3b,
    0x1c, 0x37, 0x0f, 0xd3, 0xcb, 0x36, 0x93, 0x4c, 0xe9, 0x36, 0xfe, 0xe6, 0x0c,
    0x37, 0xca, 0x5c, 0x03, 0x37, 0x3d, 0xd4, 0xb9, 0x36, 0x78, 0x99, 0x97, 0x36,
    0x20, 0x00, 0x00, 0x00, 0x00, 0x00, 0x00, 0x00, 0x00, 0x00, 0x00, 0x00, 0x00,
    0x00, 0x00, 0x00, 0x00, 0x00, 0x00, 0x00, 0x00, 0x00, 0x00, 0x00, 0x00, 0x00,
    0x00, 0x00, 0x00, 0x00, 0x00, 0x00, 0x00, 0x00, 0x00, 0x00, 0x00, 0x00, 0x00,
    0x00, 0x00, 0x00, 0x00, 0x00, 0x00, 0x00, 0x00, 0x00, 0x00, 0x00, 0x00, 0x00,
    0x00, 0x00, 0x00, 0x00, 0x00, 0x00, 0x00, 0x00, 0x00, 0x00, 0x00, 0x00, 0x00,
    0x00, 0x00, 0x00, 0x00, 0x00, 0x00, 0x00, 0x00, 0x00, 0x00, 0x00, 0x00, 0x00,
    0x00, 0x00, 0x00, 0x00, 0x00, 0x00, 0x00, 0x00, 0x00, 0x00, 0x00, 0x00, 0x00,
    0x00, 0x00, 0x00, 0x00, 0x00, 0x00, 0x00, 0x00, 0x00, 0x00, 0x00, 0x00, 0x00,
    0x00, 0x00, 0x00, 0x00, 0x00, 0x00, 0x00, 0x00, 0x00, 0x00, 0x00, 0x00, 0x00,
    0x00, 0x00, 0x00, 0x00, 0x00, 0x00, 0x00, 0x00, 0x00, 0x00, 0x00, 0x00, 0x00,
    0x00, 0x00, 0x00, 0x00, 0x00, 0x00, 0x00, 0x00, 0x00, 0x00, 0x00, 0x00, 0x00,
    0x00, 0x00, 0x00, 0x00, 0x00, 0x00, 0x00, 0x00, 0x00, 0x00, 0x00, 0x00, 0x00,
    0x00, 0x00, 0x00, 0x00, 0x00, 0x00, 0x00, 0x00, 0x00, 0x00, 0x00, 0x00, 0x00,
    0x00, 0x00, 0x00, 0x00, 0x00, 0x00, 0x00, 0x00, 0x00, 0x00, 0x00, 0x00, 0x00,
    0x00, 0x00, 0x00, 0x00, 0x00, 0x00, 0x00, 0x00, 0x00, 0x00, 0x00, 0x00, 0x00,
    0x00, 0x00, 0x00, 0x00, 0x00, 0x00, 0x00, 0x00, 0x00, 0x00, 0x00, 0x00, 0x00,
    0x00, 0x00, 0x00, 0x00, 0x00, 0x00, 0x00, 0x00, 0x00, 0x00, 0x00, 0x00, 0x00,
    0x00, 0x00, 0x00, 0x00, 0x00, 0x00, 0x00, 0x00, 0x00, 0x00, 0x00, 0x00, 0x00,
    0x00, 0x00, 0x00, 0x00, 0x00, 0x00, 0x00, 0x00, 0x00, 0x00, 0x00, 0x00, 0x00,
    0x00, 0x00, 0x00, 0x00, 0x00, 0x00, 0x00, 0x00, 0x00, 0x00, 0x00, 0x00, 0x00,
    0xee, 0xfa, 0xff, 0xff, 0x04, 0x00, 0x00, 0x00, 0x20, 0x03, 0x00, 0x00, 0xe4,
    0xde, 0xf1, 0x04, 0xbb, 0x41, 0xb3, 0xb5, 0x81, 0x8d, 0x32, 0x2b, 0xe8, 0xf4,
    0x44, 0x25, 0x04, 0x10, 0x48, 0x43, 0x0f, 0x44, 0x3c, 0x4c, 0x41, 0xc3, 0xc2,
    0xde, 0x18, 0x9c, 0x53, 0x29, 0x3b, 0x56, 0x27, 0xc2, 0xb5, 0xfa, 0x32, 0xc8,
    0xce, 0xad, 0xde, 0x61, 0xd4, 0xdf, 0x81, 0x0b, 0x51, 0x00, 0x07, 0xf1, 0x28,
    0x26, 0x13, 0x08, 0x1c, 0x22, 0x45, 0x2c, 0xdc, 0xee, 0x11, 0x48, 0x48, 0xbf,
    0x81, 0x95, 0xbd, 0x21, 0x4c, 0xec, 0xac, 0xd5, 0xea, 0x37, 0x17, 0xe7, 0xcd,
    0xcf, 0x48, 0x2f, 0x10, 0xad, 0x81, 0x4a, 0x4c, 0xf0, 0xcc, 0xbd, 0x54, 0x3a,
    0xe9, 0xce, 0xcf, 0x45, 0x2a, 0xde, 0x07, 0x1c, 0xa2, 0x29, 0xee, 0xc8, 0x1f,
    0xf5, 0x5a, 0x15, 0x81, 0x8f, 0x1f, 0x2a, 0x4b, 0xdf, 0xed, 0x98, 0xfa, 0xed,
    0x36, 0x3b, 0xce, 0x0d, 0x17, 0xf0, 0x2f, 0xe6, 0xf0, 0xc7, 0xa8, 0x17, 0x3c,
    0x11, 0xa0, 0x81, 0xad, 0x46, 0x36, 0x3b, 0x03, 0xcf, 0x2a, 0x11, 0x2f, 0x0d,
    0xd4, 0x1a, 0x09, 0x29, 0x47, 0x58, 0x03, 0xfe, 0x01, 0x19, 0x05, 0x17, 0x24,
    0x04, 0x10, 0xbb, 0xfb, 0x15, 0x26, 0x28, 0x81, 0xef, 0x07, 0x62, 0x1a, 0x9d,
    0xb1, 0xf6, 0x3b, 0x21, 0xd7, 0x39, 0x53, 0x49, 0x47, 0x3b, 0x3e, 0x2d, 0x2a,
    0x1b, 0x1d, 0xd4, 0xdd, 0xeb, 0xd6, 0xa3, 0xf7, 0x99, 0x81, 0x8b, 0xb2, 0x1b,
    0x04, 0x06, 0x1f, 0x34, 0xcf, 0x1a, 0xf3, 0x3b, 0x0d, 0x86, 0xfe, 0x27, 0x7f,
    0x14, 0x4d, 0x36, 0x6c, 0x6e, 0x5b, 0x28, 0x42, 0x50, 0x26, 0x3a, 0x30, 0x55,
    0x18, 0x10, 0xb0, 0xef, 0xbd, 0xac, 0xe4, 0x1d, 0x19, 0xef, 0xb5, 0x81, 0xd1,
    0x2f, 0x30, 0xd5, 0x93, 0x9f, 0x3e, 0x1c, 0xf6, 0xed, 0xcc, 0x36, 0x2f, 0x1b,
    0xf7, 0xec, 0x5f, 0x09, 0xd6, 0x04, 0x98, 0xe6, 0x2f, 0x0f, 0xe9, 0xfe, 0xf6,
    0x24, 0x7f, 0x3d, 0x1b, 0xc3, 0xfe, 0x2a, 0x30, 0x20, 0xa8, 0xd1, 0xde, 0x3f,
    0xd7, 0x0e, 0x0f, 0xdc, 0xe8, 0x8b, 0x19, 0x25, 0x33, 0xe1, 0x91, 0xd9, 0x36,
    0x57, 0x4f, 0x48, 0xb0, 0xfa, 0x19, 0x40, 0x33, 0xa5, 0x81, 0xda, 0xe9, 0xf8,
    0xe5, 0x6a, 0x3d, 0xc1, 0x0b, 0x12, 0x08, 0x31, 0xeb, 0xe9, 0x0b, 0x1f, 0xf9,
    0x22, 0x2a, 0x73, 0xe4, 0x74, 0xe8, 0xa3, 0xbf, 0xd5, 0x17, 0x90, 0x81, 0x18,
    0x22, 0x2c, 0x1c, 0x46, 0xb9, 0x09, 0x14, 0x1a, 0x24, 0xa2, 0xbe, 0x1a, 0x36,
    0x1c, 0xa1, 0x8e, 0x81, 0x8f, 0xbc, 0x17, 0xd6, 0xc0, 0xe8, 0xf6, 0xf9, 0xf0,
    0xe8, 0x81, 0xc1, 0xcb, 0xf5, 0x0d, 0xf0, 0xf9, 0x20, 0x50, 0x40, 0x62, 0x46,
    0x2f, 0x40, 0x58, 0x20, 0x0a, 0x99, 0x83, 0xa0, 0xc7, 0xe2, 0x3e, 0x21, 0x52,
    0xf8, 0x81, 0xdd, 0xf4, 0x2f, 0x2e, 0xb6, 0xdd, 0xb4, 0x4e, 0x32, 0xda, 0xe9,
    0xb5, 0x52, 0x26, 0x15, 0x07, 0x9b, 0x30, 0x3c, 0xf1, 0xbf, 0xd8, 0x03, 0x0e,
    0x2a, 0xd3, 0x34, 0x30, 0x32, 0x1a, 0x23, 0x3d, 0x4d, 0x3c, 0xca, 0x31, 0x0d,
    0xfb, 0xa5, 0xbe, 0xff, 0xcb, 0x81, 0xd6, 0x2a, 0xfa, 0xd6, 0x07, 0xed, 0x00,
    0x2c, 0x43, 0x3e, 0x32, 0x40, 0x04, 0x15, 0x58, 0x60, 0x16, 0xdf, 0xed, 0xe7,
    0xc0, 0xaa, 0xc2, 0xb3, 0x81, 0xb2, 0xe2, 0xf3, 0xdd, 0x83, 0x19, 0x24, 0xb8,
    0xc9, 0xa2, 0x26, 0x2f, 0x0a, 0xb3, 0xd0, 0x13, 0x7f, 0x09, 0x29, 0x24, 0xc8,
    0x1b, 0x26, 0x39, 0x19, 0xf7, 0xcd, 0x38, 0x75, 0x5d, 0xed, 0xaa, 0x46, 0x6a,
    0x14, 0x90, 0xb8, 0x54, 0x5e, 0xf2, 0x81, 0x8f, 0x07, 0x1a, 0xe8, 0xc7, 0xe6,
    0xec, 0xe0, 0xea, 0xf5, 0xfd, 0xa2, 0x10, 0xcb, 0x3d, 0xdb, 0x68, 0x7e, 0x16,
    0xe8, 0xd5, 0x3a, 0x5d, 0x81, 0xd7, 0x1b, 0x91, 0x0b, 0x59, 0x44, 0xe9, 0xcc,
    0x3f, 0x60, 0xe6, 0x86, 0xd1, 0xe2, 0xd0, 0x1d, 0x2f, 0xdb, 0x06, 0x19, 0x73,
    0xd9, 0xd4, 0x0b, 0x32, 0x45, 0x81, 0xfd, 0x08, 0x42, 0x02, 0xaa, 0x01, 0x03,
    0x02, 0xd3, 0xf3, 0x32, 0x6d, 0x09, 0xe4, 0xae, 0x3f, 0x07, 0x7f, 0x47, 0xf4,
    0x3f, 0x2f, 0xb8, 0x13, 0x5e, 0x30, 0x60, 0x41, 0x46, 0x45, 0x29, 0xe4, 0x16,
    0x58, 0x19, 0x14, 0x28, 0x1a, 0xdb, 0x81, 0xfd, 0xfa, 0x41, 0x1a, 0xd4, 0xd9,
    0xc5, 0x00, 0x60, 0x41, 0x3c, 0xc1, 0xdc, 0x47, 0x46, 0x29, 0x10, 0xaa, 0xa1,
    0xdc, 0x99, 0xf8, 0x27, 0x25, 0x14, 0xaa, 0x81, 0xab, 0xc9, 0x04, 0xbc, 0xa4,
    0xb6, 0xb4, 0xe1, 0x19, 0x1f, 0xf6, 0x1d, 0x1e, 0x32, 0x3a, 0x07, 0x37, 0x10,
    0x42, 0xce, 0xbe, 0x18, 0x16, 0x0d, 0xd1, 0xbb, 0xf0, 0x5c, 0x81, 0xa5, 0xa0,
    0xfe, 0x5e, 0xdb, 0xe3, 0xd2, 0x42, 0x65, 0xf0, 0xf8, 0xf3, 0x39, 0x2d, 0x25,
    0x41, 0x11, 0xda, 0xfe, 0xa9, 0x2a, 0x34, 0x8f, 0x81, 0xc6, 0xfa, 0x46, 0xcb,
    0x8f, 0x25, 0x26, 0x57, 0x47, 0x69, 0xea, 0xce, 0x17, 0x4a, 0x6f, 0x36, 0x01,
    0xd5, 0x30, 0x7b, 0x35, 0x39, 0x15, 0x1f, 0x47, 0xe3, 0x10, 0xc3, 0xfb, 0xe6,
    0x37, 0x1f, 0xdf, 0xf1, 0xa8, 0xf3, 0xa9, 0x81, 0xba, 0xe2, 0x10, 0xee, 0xe0,
    0x0a, 0x4c, 0x1b, 0xe1, 0xcc, 0x2f, 0x51, 0xdb, 0xc0, 0xae, 0x30, 0x67, 0x81,
    0xa0, 0xd7, 0x38, 0x64, 0xc8, 0xff, 0x02, 0x3c, 0x2d, 0xf5, 0xa8, 0xc6, 0x81,
    0x9e, 0x37, 0x47, 0x17, 0xcd, 0xd7, 0x15, 0x45, 0x3d, 0x73, 0xe4, 0xf4, 0xfe,
    0x02, 0xe6, 0x01, 0xf5, 0x3a, 0x34, 0x0f, 0x4b, 0x81, 0xdb, 0xc1, 0xde, 0xb8,
    0xa4, 0xbb, 0xec, 0x2c, 0xfe, 0xcb, 0xc1, 0xf8, 0x3e, 0x45, 0xbd, 0x2c, 0x01,
    0x47, 0x01, 0x25, 0x1e, 0x25, 0x5a, 0x0d, 0x46, 0x34, 0x0e, 0x16, 0x41, 0xee,
    0xe5, 0x5d, 0x02, 0x57, 0x0e, 0x97, 0x03, 0x4a, 0x44, 0xee, 0x0c, 0xf0, 0x4b,
    0xfe, 0x3c, 0x82, 0x81, 0x1a, 0xe6, 0xfe, 0xfd, 0xff, 0xff, 0x00, 0x00, 0x00,
    0x09, 0x10, 0x00, 0x00, 0x00, 0x03, 0x00, 0x00, 0x00, 0x1c, 0x00, 0x00, 0x00,
    0x3c, 0x00, 0x00, 0x00, 0x04, 0x00, 0x00, 0x00, 0x20, 0x00, 0x00, 0x00, 0x05,
    0x00, 0x00, 0x00, 0x05, 0x00, 0x00, 0x00, 0x01, 0x00, 0x00, 0x00, 0x1c, 0x00,
    0x00, 0x00, 0x73, 0x65, 0x71, 0x75, 0x65, 0x6e, 0x74, 0x69, 0x61, 0x6c, 0x5f,
    0x39, 0x36, 0x2f, 0x63, 0x6f, 0x6e, 0x76, 0x32, 0x64, 0x30, 0x2f, 0x43, 0x6f,
    0x6e, 0x76, 0x32, 0x44, 0x00, 0x00, 0x00, 0x00, 0x80, 0xfd, 0xff, 0xff, 0x08,
    0x00, 0x00, 0x00, 0x88, 0x00, 0x00, 0x00, 0x20, 0x00, 0x00, 0x00, 0x07, 0x27,
    0xe8, 0x3a, 0xe5, 0xd6, 0x08, 0x3b, 0xf4, 0xfc, 0x66, 0x3b, 0x57, 0x2a, 0x1e,
    0x3b, 0x5b, 0xdd, 0xc9, 0x3a, 0x5f, 0x13, 0x1d, 0x3b, 0xaf, 0x2f, 0x45, 0x3b,
    0xae, 0x4a, 0x2e, 0x3b, 0x72, 0x5c, 0xb1, 0x3a, 0x2f, 0xf8, 0x82, 0x3b, 0xec,
    0xe5, 0xc1, 0x3a, 0x7d, 0x69, 0xf8, 0x3a, 0x07, 0xb9, 0xa9, 0x3a, 0x44, 0xbe,
    0x2f, 0x3b, 0x48, 0x3e, 0x09, 0x3b, 0x0a, 0x2e, 0xe3, 0x3a, 0x1a, 0x24, 0x47,
    0x3b, 0x72, 0xb6, 0x31, 0x3b, 0x4d, 0x25, 0xdd, 0x3a, 0x4b, 0x78, 0x2e, 0x3b,
    0x0f, 0x71, 0xa0, 0x3a, 0x47, 0x43, 0x3b, 0x3b, 0x69, 0x8c, 0xaa, 0x3a, 0x5f,
    0xa9, 0x1a, 0x3b, 0x9f, 0xfb, 0x0b, 0x3b, 0xcb, 0x9e, 0x1b, 0x3b, 0x3b, 0x07,
    0xcb, 0x3a, 0x46, 0x63, 0xe8, 0x3a, 0x16, 0x5a, 0x0c, 0x3b, 0x6d, 0xd9, 0x02,
    0x3b, 0x68, 0x1a, 0xb9, 0x3a, 0xde, 0x01, 0x97, 0x3a, 0x20, 0x00, 0x00, 0x00,
    0x00, 0x00, 0x00, 0x00, 0x00, 0x00, 0x00, 0x00, 0x00, 0x00, 0x00, 0x00, 0x00,
    0x00, 0x00, 0x00, 0x00, 0x00, 0x00, 0x00, 0x00, 0x00, 0x00, 0x00, 0x00, 0x00,
    0x00, 0x00, 0x00, 0x00, 0x00, 0x00, 0x00, 0x00, 0x00, 0x00, 0x00, 0x00, 0x00,
    0x00, 0x00, 0x00, 0x00, 0x00, 0x00, 0x00, 0x00, 0x00, 0x00, 0x00, 0x00, 0x00,
    0x00, 0x00, 0x00, 0x00, 0x00, 0x00, 0x00, 0x00, 0x00, 0x00, 0x00, 0x00, 0x00,
    0x00, 0x00, 0x00, 0x00, 0x00, 0x00, 0x00, 0x00, 0x00, 0x00, 0x00, 0x00, 0x00,
    0x00, 0x00, 0x00, 0x00, 0x00, 0x00, 0x00, 0x00, 0x00, 0x00, 0x00, 0x00, 0x00,
    0x00, 0x00, 0x00, 0x00, 0x00, 0x00, 0x00, 0x00, 0x00, 0x00, 0x00, 0x00, 0x00,
    0x00, 0x00, 0x00, 0x00, 0x00, 0x00, 0x00, 0x00, 0x00, 0x00, 0x00, 0x00, 0x00,
    0x00, 0x00, 0x00, 0x00, 0x00, 0x00, 0x00, 0x00, 0x00, 0x00, 0x00, 0x00, 0x00,
    0x00, 0x00, 0x00, 0x00, 0x00, 0x00, 0x00, 0x00, 0x00, 0x00, 0x00, 0x00, 0x00,
    0x00, 0x00, 0x00, 0x00, 0x00, 0x00, 0x00, 0x00, 0x00, 0x00, 0x00, 0x00, 0x00,
    0x00, 0x00, 0x00, 0x00, 0x00, 0x00, 0x00, 0x00, 0x00, 0x00, 0x00, 0x00, 0x00,
    0x00, 0x00, 0x00, 0x00, 0x00, 0x00, 0x00, 0x00, 0x00, 0x00, 0x00, 0x00, 0x00,
    0x00, 0x00, 0x00, 0x00, 0x00, 0x00, 0x00, 0x00, 0x00, 0x00, 0x00, 0x00, 0x00,
    0x00, 0x00, 0x00, 0x00, 0x00, 0x00, 0x00, 0x00, 0x00, 0x00, 0x00, 0x00, 0x00,
    0x00, 0x00, 0x00, 0x00, 0x00, 0x00, 0x00, 0x00, 0x00, 0x00, 0x00, 0x00, 0x00,
    0x00, 0x00, 0x00, 0x00, 0x00, 0x00, 0x00, 0x00, 0x00, 0x00, 0x00, 0x00, 0x00,
    0x00, 0x00, 0x00, 0x00, 0x00, 0x00, 0x00, 0x00, 0x00, 0x00, 0x00, 0x00, 0x00,
    0x00, 0x00, 0x00, 0x00, 0x00, 0x00, 0x00, 0x00, 0x00, 0x00, 0x00, 0x06, 0x00,
    0x08, 0x00, 0x04, 0x00, 0x06, 0x00, 0x00, 0x00, 0x04, 0x00, 0x00, 0x00, 0x08,
    0x00, 0x00, 0x00, 0xff, 0xff, 0xff, 0xff, 0x00, 0x02, 0x00, 0x00, 0x00, 0x00,
    0x0e, 0x00, 0x18, 0x00, 0x08, 0x00, 0x07, 0x00, 0x0c, 0x00, 0x10, 0x00, 0x14,
    0x00, 0x0e, 0x00, 0x00, 0x00, 0x00, 0x00, 0x00, 0x02, 0x10, 0x00, 0x00, 0x00,
    0x02, 0x00, 0x00, 0x00, 0x10, 0x00, 0x00, 0x00, 0x2c, 0x00, 0x00, 0x00, 0x01,
    0x00, 0x00, 0x00, 0x02, 0x00, 0x00, 0x00, 0x1b, 0x00, 0x00, 0x00, 0x73, 0x65,
    0x71, 0x75, 0x65, 0x6e, 0x74, 0x69, 0x61, 0x6c, 0x5f, 0x39, 0x36, 0x2f, 0x66,
    0x6c, 0x61, 0x74, 0x74, 0x65, 0x6e, 0x2f, 0x43, 0x6f, 0x6e, 0x73, 0x74, 0x00,
    0x54, 0xff, 0xff, 0xff, 0x14, 0x00, 0x1c, 0x00, 0x08, 0x00, 0x07, 0x00, 0x0c,
    0x00, 0x10, 0x00, 0x14, 0x00, 0x00, 0x00, 0x00, 0x00, 0x18, 0x00, 0x14, 0x00,
    0x00, 0x00, 0x00, 0x00, 0x00, 0x09, 0x14, 0x00, 0x00, 0x00, 0x01, 0x00, 0x00,
    0x00, 0x20, 0x00, 0x00, 0x00, 0x60, 0x00, 0x00, 0x00, 0x3c, 0x00, 0x00, 0x00,
    0x04, 0x00, 0x00, 0x00, 0x01, 0x00, 0x00, 0x00, 0x1c, 0x00, 0x00, 0x00, 0x1c,
    0x00, 0x00, 0x00, 0x01, 0x00, 0x00, 0x00, 0x1f, 0x00, 0x00, 0x00, 0x73, 0x65,
    0x72, 0x76, 0x69, 0x6e, 0x67, 0x5f, 0x64, 0x65, 0x66, 0x61, 0x75, 0x6c, 0x74,
    0x5f, 0x63, 0x6f, 0x6e, 0x76, 0x32, 0x64, 0x30, 0x5f, 0x69, 0x6e, 0x70, 0x75,
    0x74, 0x3a, 0x30, 0x00, 0x04, 0x00, 0x00, 0x00, 0xff, 0xff, 0xff, 0xff, 0x1c,
    0x00, 0x00, 0x00, 0x1c, 0x00, 0x00, 0x00, 0x01, 0x00, 0x00, 0x00, 0x0c, 0x00,
    0x0c, 0x00, 0x00, 0x00, 0x00, 0x00, 0x04, 0x00, 0x08, 0x00, 0x0c, 0x00, 0x00,
    0x00, 0x08, 0x00, 0x00, 0x00, 0x0c, 0x00, 0x00, 0x00, 0x01, 0x00, 0x00, 0x00,
    0x81, 0x80, 0x80, 0x3b, 0x01, 0x00, 0x00, 0x00, 0x80, 0xff, 0xff, 0xff, 0xff,
    0xff, 0xff, 0xff, 0x04, 0x00, 0x04, 0x00, 0x04, 0x00, 0x00, 0x00,
};
const int g_model_len = 15000;

